{
  "version": "1.0",
  "truncation": null,
  "padding": null,
  "added_tokens": [
    {
      "id": 0,
      "content": "<|end|>",
      "single_word": false,
      "lstrip": false,
      "rstrip": false,
      "normalized": false,
      "special": true
    },
    {
      "id": 1,
      "content": "<|user|>",
      "single_word": false,
      "lstrip": false,
      "rstrip": false,
      "normalized": false,
      "special": true
    },
    {
      "id": 2,
      "content": "<|assistant|>",
      "single_word": false,
      "lstrip": false,
      "rstrip": false,
      "normalized": false,
      "special": true
    },
    {
      "id": 3,
      "content": "<|think|>",
      "single_word": false,
      "lstrip": false,
      "rstrip": false,
      "normalized": false,
      "special": true
    },
    {
      "id": 4,
      "content": "<|tool|>",
      "single_word": false,
      "lstrip": false,
      "rstrip": false,
      "normalized": false,
      "special": true
    },
    {
      "id": 5,
      "content": "<|result|>",
      "single_word": false,
      "lstrip": false,
      "rstrip": false,
      "normalized": false,
      "special": true
    },
    {
      "id": 6,
      "content": "<|error|>",
      "single_word": false,
      "lstrip": false,
      "rstrip": false,
      "normalized": false,
      "special": true
    },
    {
      "id": 7,
      "content": "<|rag|>",
      "single_word": false,
      "lstrip": false,
      "rstrip": false,
      "normalized": false,
      "special": true
    },
    {
      "id": 8,
      "content": "<|system|>",
      "single_word": false,
      "lstrip": false,
      "rstrip": false,
      "normalized": false,
      "special": true
    },
    {
      "id": 9,
      "content": "<|runtime|>",
      "single_word": false,
      "lstrip": false,
      "rstrip": false,
      "normalized": false,
      "special": true
    },
    {
      "id": 10,
      "content": "<think>",
      "single_word": false,
      "lstrip": false,
      "rstrip": false,
      "normalized": false,
      "special": true
    },
    {
      "id": 11,
      "content": "</think>",
      "single_word": false,
      "lstrip": false,
      "rstrip": false,
      "normalized": false,
      "special": true
    },
    {
      "id": 12,
      "content": "<tool>",
      "single_word": false,
      "lstrip": false,
      "rstrip": false,
      "normalized": false,
      "special": true
    },
    {
      "id": 13,
      "content": "</tool>",
      "single_word": false,
      "lstrip": false,
      "rstrip": false,
      "normalized": false,
      "special": true
    },
    {
      "id": 14,
      "content": "<result>",
      "single_word": false,
      "lstrip": false,
      "rstrip": false,
      "normalized": false,
      "special": true
    },
    {
      "id": 15,
      "content": "</result>",
      "single_word": false,
      "lstrip": false,
      "rstrip": false,
      "normalized": false,
      "special": true
    },
    {
      "id": 16,
      "content": "<|pad|>",
      "single_word": false,
      "lstrip": false,
      "rstrip": false,
      "normalized": false,
      "special": true
    }
  ],
  "normalizer": null,
  "pre_tokenizer": {
    "type": "Sequence",
    "pretokenizers": [
      {
        "type": "Split",
        "pattern": {
          "Regex": "'(?i:[sdmt]|ll|ve|re)|[^\\r\\n\\p{L}\\p{N}]?+\\p{L}++|\\p{N}{1,3}+| ?[^\\s\\p{L}\\p{N}]++[\\r\\n]*+|\\s++$|\\s*[\\r\\n]|\\s+(?!\\S)|\\s"
        },
        "behavior": "Isolated",
        "invert": false
      },
      {
        "type": "ByteLevel",
        "add_prefix_space": false,
        "trim_offsets": true,
        "use_regex": false
      }
    ]
  },
  "post_processor": null,
  "decoder": {
    "type": "ByteLevel",
    "add_prefix_space": false,
    "trim_offsets": true,
    "use_regex": false
  },
  "model": {
    "type": "BPE",
    "dropout": null,
    "unk_token": null,
    "continuing_subword_prefix": null,
    "end_of_word_suffix": null,
    "fuse_unk": false,
    "byte_fallback": false,
    "ignore_merges": false,
    "vocab": {
      "Ā": 17,
      "ā": 18,
      "Ă": 19,
      "ă": 20,
      "Ą": 21,
      "ą": 22,
      "Ć": 23,
      "ć": 24,
      "Ĉ": 25,
      "ĉ": 26,
      "Ċ": 27,
      "ċ": 28,
      "Č": 29,
      "č": 30,
      "Ď": 31,
      "ď": 32,
      "Đ": 33,
      "đ": 34,
      "Ē": 35,
      "ē": 36,
      "Ĕ": 37,
      "ĕ": 38,
      "Ė": 39,
      "ė": 40,
      "Ę": 41,
      "ę": 42,
      "Ě": 43,
      "ě": 44,
      "Ĝ": 45,
      "ĝ": 46,
      "Ğ": 47,
      "ğ": 48,
      "Ġ": 49,
      "!": 50,
      "\"": 51,
      "#": 52,
      "$": 53,
      "%": 54,
      "&": 55,
      "'": 56,
      "(": 57,
      ")": 58,
      "*": 59,
      "+": 60,
      ",": 61,
      "-": 62,
      ".": 63,
      "/": 64,
      "0": 65,
      "1": 66,
      "2": 67,
      "3": 68,
      "4": 69,
      "5": 70,
      "6": 71,
      "7": 72,
      "8": 73,
      "9": 74,
      ":": 75,
      ";": 76,
      "<": 77,
      "=": 78,
      ">": 79,
      "?": 80,
      "@": 81,
      "A": 82,
      "B": 83,
      "C": 84,
      "D": 85,
      "E": 86,
      "F": 87,
      "G": 88,
      "H": 89,
      "I": 90,
      "J": 91,
      "K": 92,
      "L": 93,
      "M": 94,
      "N": 95,
      "O": 96,
      "P": 97,
      "Q": 98,
      "R": 99,
      "S": 100,
      "T": 101,
      "U": 102,
      "V": 103,
      "W": 104,
      "X": 105,
      "Y": 106,
      "Z": 107,
      "[": 108,
      "\\": 109,
      "]": 110,
      "^": 111,
      "_": 112,
      "`": 113,
      "a": 114,
      "b": 115,
      "c": 116,
      "d": 117,
      "e": 118,
      "f": 119,
      "g": 120,
      "h": 121,
      "i": 122,
      "j": 123,
      "k": 124,
      "l": 125,
      "m": 126,
      "n": 127,
      "o": 128,
      "p": 129,
      "q": 130,
      "r": 131,
      "s": 132,
      "t": 133,
      "u": 134,
      "v": 135,
      "w": 136,
      "x": 137,
      "y": 138,
      "z": 139,
      "{": 140,
      "|": 141,
      "}": 142,
      "~": 143,
      "ġ": 144,
      "Ģ": 145,
      "ģ": 146,
      "Ĥ": 147,
      "ĥ": 148,
      "Ħ": 149,
      "ħ": 150,
      "Ĩ": 151,
      "ĩ": 152,
      "Ī": 153,
      "ī": 154,
      "Ĭ": 155,
      "ĭ": 156,
      "Į": 157,
      "į": 158,
      "İ": 159,
      "ı": 160,
      "Ĳ": 161,
      "ĳ": 162,
      "Ĵ": 163,
      "ĵ": 164,
      "Ķ": 165,
      "ķ": 166,
      "ĸ": 167,
      "Ĺ": 168,
      "ĺ": 169,
      "Ļ": 170,
      "ļ": 171,
      "Ľ": 172,
      "ľ": 173,
      "Ŀ": 174,
      "ŀ": 175,
      "Ł": 176,
      "ł": 177,
      "¡": 178,
      "¢": 179,
      "£": 180,
      "¤": 181,
      "¥": 182,
      "¦": 183,
      "§": 184,
      "¨": 185,
      "©": 186,
      "ª": 187,
      "«": 188,
      "¬": 189,
      "Ń": 190,
      "®": 191,
      "¯": 192,
      "°": 193,
      "±": 194,
      "²": 195,
      "³": 196,
      "´": 197,
      "µ": 198,
      "¶": 199,
      "·": 200,
      "¸": 201,
      "¹": 202,
      "º": 203,
      "»": 204,
      "¼": 205,
      "½": 206,
      "¾": 207,
      "¿": 208,
      "À": 209,
      "Á": 210,
      "Â": 211,
      "Ã": 212,
      "Ä": 213,
      "Å": 214,
      "Æ": 215,
      "Ç": 216,
      "È": 217,
      "É": 218,
      "Ê": 219,
      "Ë": 220,
      "Ì": 221,
      "Í": 222,
      "Î": 223,
      "Ï": 224,
      "Ð": 225,
      "Ñ": 226,
      "Ò": 227,
      "Ó": 228,
      "Ô": 229,
      "Õ": 230,
      "Ö": 231,
      "×": 232,
      "Ø": 233,
      "Ù": 234,
      "Ú": 235,
      "Û": 236,
      "Ü": 237,
      "Ý": 238,
      "Þ": 239,
      "ß": 240,
      "à": 241,
      "á": 242,
      "â": 243,
      "ã": 244,
      "ä": 245,
      "å": 246,
      "æ": 247,
      "ç": 248,
      "è": 249,
      "é": 250,
      "ê": 251,
      "ë": 252,
      "ì": 253,
      "í": 254,
      "î": 255,
      "ï": 256,
      "ð": 257,
      "ñ": 258,
      "ò": 259,
      "ó": 260,
      "ô": 261,
      "õ": 262,
      "ö": 263,
      "÷": 264,
      "ø": 265,
      "ù": 266,
      "ú": 267,
      "û": 268,
      "ü": 269,
      "ý": 270,
      "þ": 271,
      "ÿ": 272,
      "Ġt": 273,
      "Ġa": 274,
      "in": 275,
      "he": 276,
      "re": 277,
      "Ġs": 278,
      "Ġthe": 279,
      "Ġc": 280,
      "on": 281,
      "er": 282,
      "ou": 283,
      "at": 284,
      "en": 285,
      "or": 286,
      "es": 287,
      "it": 288,
      "Ġw": 289,
      "ing": 290,
      "Ġf": 291,
      "nd": 292,
      "is": 293,
      "an": 294,
      "Ġp": 295,
      "al": 296,
      "Ġo": 297,
      "Ġm": 298,
      "Ġb": 299,
      "Ġto": 300,
      "ar": 301,
      "Ġand": 302,
      "Ġin": 303,
      "ed": 304,
      "Ġof": 305,
      "le": 306,
      "Ġh": 307,
      "Ġd": 308,
      "ĊĊ": 309,
      "ic": 310,
      "Ġy": 311,
      "ion": 312,
      "Ġth": 313,
      "Ġyou": 314,
      "Ġl": 315,
      "om": 316,
      "Ġe": 317,
      "as": 318,
      "ct": 319,
      "ent": 320,
      "ĠT": 321,
      "il": 322,
      "ow": 323,
      "ĠI": 324,
      "Ġre": 325,
      "ve": 326,
      "Ġg": 327,
      "us": 328,
      "ig": 329,
      "Ġn": 330,
      ".ĊĊ": 331,
      "Ġst": 332,
      "ro": 333,
      "im": 334,
      "et": 335,
      "ly": 336,
      "ce": 337,
      "Ġit": 338,
      "ay": 339,
      "Ġfor": 340,
      "ot": 341,
      "ers": 342,
      "Ġis": 343,
      "ra": 344,
      "el": 345,
      "Ġthat": 346,
      "Ġhe": 347,
      "id": 348,
      "ke": 349,
      "ol": 350,
      "am": 351,
      "ch": 352,
      "ir": 353,
      "'s": 354,
      "Ġbe": 355,
      "ut": 356,
      "if": 357,
      "ith": 358,
      "Ġon": 359,
      "ation": 360,
      "ht": 361,
      "ul": 362,
      "ĠThe": 363,
      "Ġwith": 364,
      "ur": 365,
      "Ġyour": 366,
      "ure": 367,
      "Ġcon": 368,
      "st": 369,
      "out": 370,
      "Ġwh": 371,
      "un": 372,
      "Ġcan": 373,
      "ad": 374,
      "Ġal": 375,
      "se": 376,
      "Ġv": 377,
      "Ġch": 378,
      "Ġex": 379,
      "ĠS": 380,
      "ity": 381,
      "ight": 382,
      "Ġcom": 383,
      "ĠA": 384,
      "ver": 385,
      "pe": 386,
      "ies": 387,
      "Ġen": 388,
      "ĠW": 389,
      "ĠĠ": 390,
      "Ġas": 391,
      "ate": 392,
      "ant": 393,
      "ĠTh": 394,
      "oo": 395,
      "her": 396,
      "Ġsh": 397,
      "Ġare": 398,
      "iv": 399,
      "ore": 400,
      "Ġan": 401,
      "Ġpl": 402,
      "ld": 403,
      "ess": 404,
      "Ġor": 405,
      "Ġpro": 406,
      "ment": 407,
      "ort": 408,
      "ac": 409,
      "Ġha": 410,
      "ill": 411,
      "ĠH": 412,
      "ge": 413,
      "ist": 414,
      "Ġab": 415,
      "ER": 416,
      "ect": 417,
      "oc": 418,
      "ĠC": 419,
      "qu": 420,
      "ust": 421,
      "Ġr": 422,
      "ere": 423,
      "Ġle": 424,
      "art": 425,
      "all": 426,
      "pp": 427,
      "ain": 428,
      "ĠM": 429,
      "em": 430,
      "ab": 431,
      "ple": 432,
      "Ġfr": 433,
      "ter": 434,
      "ive": 435,
      "ep": 436,
      "ike": 437,
      "rou": 438,
      "Ġne": 439,
      "ial": 440,
      "and": 441,
      "our": 442,
      "ak": 443,
      "ien": 444,
      "est": 445,
      "Ġtheir": 446,
      "act": 447,
      "ĠB": 448,
      "Ġabout": 449,
      "Ġexp": 450,
      "ĠIt": 451,
      "Ġse": 452,
      "Ġim": 453,
      "res": 454,
      "Ġwor": 455,
      "Ġwas": 456,
      "ions": 457,
      "NT": 458,
      "?ĊĊ": 459,
      "Ġj": 460,
      "Ġlike": 461,
      "th": 462,
      "Ġ\"": 463,
      "Ġnot": 464,
      "Ġde": 465,
      "ud": 466,
      "ould": 467,
      "Ġthey": 468,
      "Ġint": 469,
      "ST": 470,
      "Ġus": 471,
      "Ġsu": 472,
      "Ġu": 473,
      "Ġwe": 474,
      "ĠP": 475,
      "ds": 476,
      "ĠĊĊ": 477,
      "ĠE": 478,
      "ĠThis": 479,
      "Ġhave": 480,
      "nt": 481,
      "Ġme": 482,
      "Ġfe": 483,
      "Ġhow": 484,
      "ance": 485,
      "Ġat": 486,
      "are": 487,
      "Ġad": 488,
      "Ġimp": 489,
      "so": 490,
      "Ġhis": 491,
      "ĠF": 492,
      "ie": 493,
      "ink": 494,
      "ide": 495,
      "Ġdo": 496,
      "ake": 497,
      "Ġfrom": 498,
      "ap": 499,
      "ind": 500,
      "ome": 501,
      "Ġwhe": 502,
      "Ġk": 503,
      "Ġhas": 504,
      "Ġits": 505,
      "ell": 506,
      "Ġalso": 507,
      "Ġbut": 508,
      "ach": 509,
      "os": 510,
      "ces": 511,
      "um": 512,
      "reat": 513,
      "Ġsp": 514,
      "ENT": 515,
      "Ġher": 516,
      "ĠD": 517,
      "ory": 518,
      "ich": 519,
      "ast": 520,
      "ĠY": 521,
      "--": 522,
      "Ġhel": 523,
      "Ġmore": 524,
      "Ġhelp": 525,
      "ib": 526,
      "ag": 527,
      "Ġthink": 528,
      "ĠL": 529,
      "Ġro": 530,
      "Ġcont": 531,
      "iz": 532,
      "**": 533,
      "ult": 534,
      "ip": 535,
      "Ġmo": 536,
      "Ġthis": 537,
      "op": 538,
      "gh": 539,
      "Ġcomm": 540,
      "ĠR": 541,
      "ong": 542,
      "ĠWh": 543,
      "ical": 544,
      "ther": 545,
      "ood": 546,
      "Ġthem": 547,
      "ile": 548,
      "Ġtim": 549,
      "low": 550,
      "ous": 551,
      "ign": 552,
      "ru": 553,
      "ard": 554,
      "able": 555,
      "Ġev": 556,
      "Ġwork": 557,
      "ame": 558,
      "Ġun": 559,
      "ine": 560,
      "ace": 561,
      "ations": 562,
      "ack": 563,
      "ff": 564,
      "ook": 565,
      "Ġres": 566,
      "ents": 567,
      "Ġfil": 568,
      "les": 569,
      "av": 570,
      "Ġplay": 571,
      "ice": 572,
      "Ġact": 573,
      "ound": 574,
      "ten": 575,
      "Ġby": 576,
      "ry": 577,
      "Ġte": 578,
      "ans": 579,
      "Ġfilm": 580,
      "DENT": 581,
      "Ġcl": 582,
      "one": 583,
      "age": 584,
      "Ġtra": 585,
      "orm": 586,
      "Ġpe": 587,
      "ĠG": 588,
      "now": 589,
      "Ġchar": 590,
      "ally": 591,
      "ark": 592,
      "Ġwhich": 593,
      "iff": 594,
      "Ġwill": 595,
      "og": 596,
      "Ġmy": 597,
      "Ġinto": 598,
      "ors": 599,
      "Ġtime": 600,
      "ire": 601,
      "Ġsc": 602,
      "Ġar": 603,
      "UDENT": 604,
      "Ġexper": 605,
      "ĠN": 606,
      "ful": 607,
      "STUDENT": 608,
      "Ġdiff": 609,
      "Ġman": 610,
      "Ġqu": 611,
      "ience": 612,
      "very": 613,
      "lect": 614,
      "Ġpart": 615,
      "ater": 616,
      "Ġwhat": 617,
      "ople": 618,
      "ne": 619,
      "Ġout": 620,
      "Ġmight": 621,
      "Ġinc": 622,
      "Ġloc": 623,
      "pec": 624,
      "ings": 625,
      "ose": 626,
      "round": 627,
      "ities": 628,
      "Ġthese": 629,
      "Ġjust": 630,
      "ĠJ": 631,
      "ific": 632,
      "vel": 633,
      "Ġother": 634,
      "form": 635,
      "aking": 636,
      "Ġrem": 637,
      "Ġdis": 638,
      "Ġcommun": 639,
      "Ġknow": 640,
      "Ġem": 641,
      "ite": 642,
      "ĠĠĊ": 643,
      "Ġimport": 644,
      "ges": 645,
      "ition": 646,
      "oy": 647,
      "du": 648,
      "Ġup": 649,
      "ĠO": 650,
      "rough": 651,
      "Ġdiffere": 652,
      "Ġke": 653,
      "Ġso": 654,
      "ated": 655,
      "Ġfeel": 656,
      "Ġapp": 657,
      "Ġpeople": 658,
      "Ġwho": 659,
      "wn": 660,
      "ĠWhat": 661,
      "Ġcharact": 662,
      "Ġund": 663,
      "cess": 664,
      "Ġoften": 665,
      "Ġcould": 666,
      "od": 667,
      "Ġsm": 668,
      "Ġgr": 669,
      "ress": 670,
      "ife": 671,
      "als": 672,
      "Ġsome": 673,
      "oth": 674,
      "ck": 675,
      "ass": 676,
      "Ġper": 677,
      "ious": 678,
      "Ġthere": 679,
      "HO": 680,
      "HOST": 681,
      "erst": 682,
      "Ġshow": 683,
      "uring": 684,
      "Ġevery": 685,
      "Ġif": 686,
      "ures": 687,
      "Ġover": 688,
      ".Ċ": 689,
      "end": 690,
      "Ġcomp": 691,
      "ĠĠĠĠ": 692,
      "Ġthrough": 693,
      "Ġwhere": 694,
      "Ġstory": 695,
      "get": 696,
      "arn": 697,
      "allen": 698,
      "erstand": 699,
      "Ġnew": 700,
      "Ġco": 701,
      "ue": 702,
      "Ġser": 703,
      "Ġway": 704,
      "Ġcult": 705,
      "AC": 706,
      "Ġcol": 707,
      "Ġdifferent": 708,
      "ĠThat": 709,
      "Ġsee": 710,
      "Ġchallen": 711,
      "Ġwhile": 712,
      "Ġtr": 713,
      "Ġsign": 714,
      "Ġexpl": 715,
      "Ġcre": 716,
      "pt": 717,
      "Ġac": 718,
      "ght": 719,
      "ick": 720,
      "Ġbr": 721,
      "ract": 722,
      "ily": 723,
      "ars": 724,
      "Ġpre": 725,
      "Ġone": 726,
      "Ġref": 727,
      "Ġpr": 728,
      "Ġhist": 729,
      "ild": 730,
      "nect": 731,
      "Ġlife": 732,
      "The": 733,
      "ary": 734,
      "Ġind": 735,
      "Ġneed": 736,
      "arm": 737,
      "Ġany": 738,
      "Ġour": 739,
      "'t": 740,
      "TE": 741,
      "iqu": 742,
      "ACH": 743,
      "ACHER": 744,
      "TEACHER": 745,
      "Ġsa": 746,
      "igh": 747,
      "Ġcreat": 748,
      "Ġcommunity": 749,
      "ber": 750,
      "Ġrel": 751,
      "ility": 752,
      "ments": 753,
      "Ġgo": 754,
      "pect": 755,
      "Ġwould": 756,
      "Ġbet": 757,
      "Ġstr": 758,
      "ĠU": 759,
      "Ġlocal": 760,
      "ting": 761,
      "Ġall": 762,
      ".\"": 763,
      "Ġbec": 764,
      "Ġwhen": 765,
      "ia": 766,
      "ural": 767,
      "Ġcons": 768,
      "ĠIn": 769,
      "Ġchan": 770,
      "hing": 771,
      "Ġmany": 772,
      "ĠHow": 773,
      "Ġspec": 774,
      "ĠK": 775,
      "Ġvis": 776,
      "Ġins": 777,
      "Ġwant": 778,
      "Ġvar": 779,
      "Ġmake": 780,
      "ts": 781,
      "Ġback": 782,
      "Ġlook": 783,
      "per": 784,
      "Ġconnect": 785,
      "Ġshe": 786,
      "Ġoff": 787,
      "Ġimportant": 788,
      "Ġfind": 789,
      "Ġmay": 790,
      "Ġunderstand": 791,
      "omet": 792,
      "ens": 793,
      "Ġra": 794,
      "way": 795,
      "ĠYou": 796,
      "ence": 797,
      "ject": 798,
      "Ġeach": 799,
      "Ġlo": 800,
      "Ġfam": 801,
      "Ġset": 802,
      "ERT": 803,
      "XP": 804,
      "XPERT": 805,
      "hen": 806,
      "Ġhad": 807,
      "tain": 808,
      "Ġsound": 809,
      "ating": 810,
      "Ġfl": 811,
      "Ġallow": 812,
      "ade": 813,
      "ĠIf": 814,
      "ĠThey": 815,
      "Ġincl": 816,
      "Ġinv": 817,
      "Ġboth": 818,
      "ond": 819,
      ",\"": 820,
      "Ġag": 821,
      "Ġadd": 822,
      "Ġsignific": 823,
      "ll": 824,
      "xt": 825,
      "Ġdes": 826,
      "Ġ**": 827,
      "Ġrec": 828,
      "Ġeff": 829,
      "pport": 830,
      "Ġlearn": 831,
      "ĠHe": 832,
      "ular": 833,
      "ories": 834,
      "ph": 835,
      "ics": 836,
      "ates": 837,
      "Ġpers": 838,
      "ĠAs": 839,
      "Ġcity": 840,
      "rit": 841,
      "Ġsim": 842,
      "Ġkeep": 843,
      "ues": 844,
      "Ġbu": 845,
      "akes": 846,
      "fter": 847,
      "we": 848,
      "joy": 849,
      "Ġwere": 850,
      "ives": 851,
      "Ġinclud": 852,
      "ique": 853,
      "Ġeven": 854,
      "ng": 855,
      "own": 856,
      "Ġlead": 857,
      "Ġgame": 858,
      "Ġcreate": 859,
      "iew": 860,
      "pl": 861,
      "hes": 862,
      "oin": 863,
      "ved": 864,
      "Ġmaking": 865,
      "ount": 866,
      "EXPERT": 867,
      "----": 868,
      "Ġenjoy": 869,
      "iences": 870,
      "Ġmus": 871,
      "hed": 872,
      "ank": 873,
      "VI": 874,
      "In": 875,
      "ish": 876,
      "Ġexperience": 877,
      "Ġtrad": 878,
      "ons": 879,
      "Ġuse": 880,
      "Ġsmall": 881,
      "ider": 882,
      "EW": 883,
      "Ġreflect": 884,
      "ost": 885,
      "Ġart": 886,
      "ĠSt": 887,
      "day": 888,
      "Ġworld": 889,
      "INT": 890,
      "INTER": 891,
      "EWER": 892,
      "INTERVI": 893,
      "INTERVIEWER": 894,
      "Ġmom": 895,
      "ices": 896,
      "Ġaud": 897,
      "ves": 898,
      "ĠFor": 899,
      "Ġtake": 900,
      "Ġam": 901,
      "Ġgrow": 902,
      "Ġbl": 903,
      "Ġsomet": 904,
      "ase": 905,
      "ving": 906,
      "Ġcare": 907,
      "Ġunique": 908,
      "Ġonly": 909,
      "ang": 910,
      "irst": 911,
      "Ġchallenges": 912,
      "hip": 913,
      "fl": 914,
      "ature": 915,
      "rib": 916,
      "Ġown": 917,
      "Ġprov": 918,
      "Ġthose": 919,
      "ning": 920,
      "Ġhigh": 921,
      "Ġgam": 922,
      "As": 923,
      "Ġrole": 924,
      "Ġhistory": 925,
      "red": 926,
      "Ġright": 927,
      "elf": 928,
      "Ġsignificant": 929,
      "velop": 930,
      "Ġhim": 931,
      "ower": 932,
      "Ġsk": 933,
      "ci": 934,
      "ential": 935,
      "ree": 936,
      "Ġtoo": 937,
      "be": 938,
      "Ġche": 939,
      "Ġdisc": 940,
      "Ġstart": 941,
      "Ġeng": 942,
      "Ġcle": 943,
      "ense": 944,
      "Ġmade": 945,
      "Ġaround": 946,
      "Ġsur": 947,
      "bs": 948,
      "Ġduring": 949,
      "apt": 950,
      "ivers": 951,
      "ather": 952,
      "Ġwater": 953,
      "Ġinter": 954,
      "Ġfrien": 955,
      "iron": 956,
      "ced": 957,
      "Ġplace": 958,
      "Ġatt": 959,
      "Ġexam": 960,
      "ocus": 961,
      "ric": 962,
      "Ġadv": 963,
      "Ġcharacter": 964,
      "ize": 965,
      "elt": 966,
      "iet": 967,
      "Ġprodu": 968,
      "Ġdevelop": 969,
      "Ġvarious": 970,
      "ise": 971,
      "Ġcomple": 972,
      "Ġenv": 973,
      "Ġcharacters": 974,
      "ft": 975,
      "Ġshare": 976,
      "ual": 977,
      "Ġperform": 978,
      "Ġcontin": 979,
      "other": 980,
      "gan": 981,
      "Ġenviron": 982,
      "Ġye": 983,
      "gg": 984,
      "Ġlight": 985,
      "ram": 986,
      "Ġmain": 987,
      "light": 988,
      "gether": 989,
      "Ġtogether": 990,
      "Ġgu": 991,
      "Ġfocus": 992,
      "Ġwell": 993,
      "Ġens": 994,
      "ail": 995,
      "Ġproject": 996,
      "AR": 997,
      "Ġsy": 998,
      "Ġdec": 999,
      "ember": 1000,
      "Ġreg": 1001,
      "ative": 1002,
      "Ġmusic": 1003,
      "Ġpract": 1004,
      "ness": 1005,
      "ĠYes": 1006,
      "Ġtal": 1007,
      "Ġreal": 1008,
      "Ġsuch": 1009,
      "Ġgen": 1010,
      "ands": 1011,
      "Ġstru": 1012,
      "Ġstre": 1013,
      "Ġhelps": 1014,
      "Ġexplore": 1015,
      "Ġhand": 1016,
      "Ġlet": 1017,
      "ĠCh": 1018,
      "Ġknown": 1019,
      "Ġap": 1020,
      "Ġinst": 1021,
      "Ġday": 1022,
      "Ġgreat": 1023,
      "Ġget": 1024,
      "Ġmod": 1025,
      "Ġbeen": 1026,
      "Ġdeep": 1027,
      "cing": 1028,
      "Ġ(": 1029,
      "old": 1030,
      "Ġbel": 1031,
      "Ġconsider": 1032,
      "ribut": 1033,
      "ub": 1034,
      "Ġview": 1035,
      "Ġperson": 1036,
      "ward": 1037,
      "20": 1038,
      "au": 1039,
      "aus": 1040,
      "aut": 1041,
      "PAR": 1042,
      "PARENT": 1043,
      "elling": 1044,
      "ape": 1045,
      "Ġfirst": 1046,
      "Ġrep": 1047,
      "ction": 1048,
      "Ġread": 1049,
      "Ġlove": 1050,
      "ian": 1051,
      "its": 1052,
      "ween": 1053,
      "Ġimpact": 1054,
      "Ġstories": 1055,
      "ax": 1056,
      "ĠV": 1057,
      "Ġreally": 1058,
      "ID": 1059,
      "arr": 1060,
      "ix": 1061,
      "ney": 1062,
      "Ġjour": 1063,
      "Ġsoc": 1064,
      "Ġide": 1065,
      "Ġfun": 1066,
      "ict": 1067,
      "Ġsomething": 1068,
      "Ġbetween": 1069,
      "'re": 1070,
      "KID": 1071,
      "Ġhum": 1072,
      "Ġplayers": 1073,
      "erest": 1074,
      "ought": 1075,
      "Ġdown": 1076,
      "cial": 1077,
      "chn": 1078,
      "Ġent": 1079,
      "uture": 1080,
      "Ġsupport": 1081,
      "Ġpop": 1082,
      "Ġfood": 1083,
      "olog": 1084,
      "Ġpres": 1085,
      "urn": 1086,
      "Ġfelt": 1087,
      "atch": 1088,
      "ps": 1089,
      "Ġstud": 1090,
      "ern": 1091,
      "ances": 1092,
      "Ġtrans": 1093,
      "uch": 1094,
      "Ġexample": 1095,
      "Ġtoday": 1096,
      "ident": 1097,
      "ied": 1098,
      "Ġmark": 1099,
      "OR": 1100,
      "erg": 1101,
      "ool": 1102,
      "Ġfuture": 1103,
      "alth": 1104,
      "Ġlong": 1105,
      "Ġunderstanding": 1106,
      "Ġenvironment": 1107,
      "**:": 1108,
      "Ġess": 1109,
      "lic": 1110,
      "Ġec": 1111,
      "Ġexc": 1112,
      "Ġdoes": 1113,
      "ĠHis": 1114,
      "ough": 1115,
      "Ġform": 1116,
      "Ġinfl": 1117,
      "Ġmakes": 1118,
      "stem": 1119,
      "ath": 1120,
      "ased": 1121,
      "TOR": 1122,
      "Ġjourney": 1123,
      "ĠSo": 1124,
      "aces": 1125,
      "Ġcontribut": 1126,
      "led": 1127,
      "19": 1128,
      "Ġpower": 1129,
      "Ġculture": 1130,
      "ef": 1131,
      "Ġgra": 1132,
      "Ġ|": 1133,
      "ĠWe": 1134,
      "br": 1135,
      "Ġtechn": 1136,
      "Ġes": 1137,
      "Ġpartic": 1138,
      "Ġinflu": 1139,
      "Ġthan": 1140,
      "Ġenc": 1141,
      "ional": 1142,
      "Ġemot": 1143,
      "Ġfound": 1144,
      ".\"ĊĊ": 1145,
      "Ġinterest": 1146,
      "Ġdep": 1147,
      "Ġbeaut": 1148,
      "'ve": 1149,
      "Ġsounds": 1150,
      "itions": 1151,
      "ling": 1152,
      "Ġty": 1153,
      "ines": 1154,
      "ĠEx": 1155,
      "Ġpoin": 1156,
      "ertain": 1157,
      "Ġdid": 1158,
      "Ġpass": 1159,
      "Ġprocess": 1160,
      "Ġstep": 1161,
      "ists": 1162,
      "Ġpol": 1163,
      "Ġappro": 1164,
      "ope": 1165,
      "Ġval": 1166,
      "Ġed": 1167,
      "Ġmuch": 1168,
      "Ġbuild": 1169,
      "ks": 1170,
      "king": 1171,
      "ever": 1172,
      "Ġpos": 1173,
      "Ġph": 1174,
      "Ġdesign": 1175,
      "ially": 1176,
      "Ġeveryone": 1177,
      "Ġindust": 1178,
      "##": 1179,
      "Ġplant": 1180,
      "Ġtw": 1181,
      "Ġeffect": 1182,
      "Ġfamily": 1183,
      "Ġfriends": 1184,
      "te": 1185,
      "Ġthought": 1186,
      "self": 1187,
      "Ġplan": 1188,
      "aring": 1189,
      "nce": 1190,
      "Ġfill": 1191,
      "Ġfin": 1192,
      "Ġbre": 1193,
      "Ġgood": 1194,
      "Ġinsp": 1195,
      "lay": 1196,
      "uss": 1197,
      "ollow": 1198,
      "Ġheart": 1199,
      "tle": 1200,
      "mm": 1201,
      "olut": 1202,
      "Ġusing": 1203,
      "uc": 1204,
      "Ġsense": 1205,
      "Ġhealth": 1206,
      "ele": 1207,
      "Ġappre": 1208,
      "ah": 1209,
      "iving": 1210,
      "ways": 1211,
      "ause": 1212,
      "Ġtown": 1213,
      "Ġvisit": 1214,
      "Ġappreci": 1215,
      "Ġsaf": 1216,
      "Ġquest": 1217,
      "ob": 1218,
      "erm": 1219,
      "ered": 1220,
      "oura": 1221,
      "Ġexperiences": 1222,
      "Ġmem": 1223,
      "Ġafter": 1224,
      "Ġshould": 1225,
      "ord": 1226,
      "Ġstrong": 1227,
      "Ġgl": 1228,
      "Ġconc": 1229,
      "Ġeas": 1230,
      "Ġarea": 1231,
      "ĠBy": 1232,
      "Ġteam": 1233,
      "Ġchange": 1234,
      "Ġmost": 1235,
      "ized": 1236,
      "Ġbig": 1237,
      "Ġdr": 1238,
      "Ġcent": 1239,
      "Ġdet": 1240,
      "Ġcru": 1241,
      "Ġappe": 1242,
      "arly": 1243,
      "ĠBut": 1244,
      "Ġlot": 1245,
      "ient": 1246,
      "Ġspecial": 1247,
      "Ġcrucial": 1248,
      "ets": 1249,
      "ĠThese": 1250,
      "Ġyears": 1251,
      "atter": 1252,
      "oice": 1253,
      "Ġdist": 1254,
      "Ġbal": 1255,
      "Ġscen": 1256,
      "Ġstill": 1257,
      "Ġenh": 1258,
      "ital": 1259,
      "onom": 1260,
      "Ġcultural": 1261,
      "pecially": 1262,
      "Ġmoment": 1263,
      "ĠEach": 1264,
      "ier": 1265,
      "Ġpersonal": 1266,
      "Ġespecially": 1267,
      "'m": 1268,
      "Ġacc": 1269,
      "vers": 1270,
      "Ġdra": 1271,
      "Ġessential": 1272,
      "chool": 1273,
      "Ġkey": 1274,
      "Ġmet": 1275,
      "Ġremember": 1276,
      "wor": 1277,
      "Ġagain": 1278,
      "ible": 1279,
      "Ġ-": 1280,
      "Ġcomplex": 1281,
      "Ġiss": 1282,
      "Ġskill": 1283,
      "Ġstoryt": 1284,
      "elebr": 1285,
      "Ġsit": 1286,
      "Ġrich": 1287,
      "Ġhope": 1288,
      "Ġsimple": 1289,
      "ros": 1290,
      "ery": 1291,
      "Ġbelie": 1292,
      "Ġtry": 1293,
      "Ġinvol": 1294,
      "Ġfollow": 1295,
      "Ġsure": 1296,
      "Ġimportance": 1297,
      "Ġthemes": 1298,
      "Ġfarm": 1299,
      "Ġdel": 1300,
      "any": 1301,
      "ited": 1302,
      "ism": 1303,
      "lev": 1304,
      "ĠAnd": 1305,
      "ision": 1306,
      "Ġmove": 1307,
      "ibr": 1308,
      "Ġstorytelling": 1309,
      "Ġcelebr": 1310,
      "Ġbetter": 1311,
      "Ġdire": 1312,
      "ĠWhen": 1313,
      "iel": 1314,
      "00": 1315,
      "Ġcome": 1316,
      "itional": 1317,
      "fore": 1318,
      "here": 1319,
      "ational": 1320,
      "!ĊĊ": 1321,
      "Ġevents": 1322,
      "Ġwarm": 1323,
      "ĠShe": 1324,
      "Ġindustry": 1325,
      "atures": 1326,
      "Ġmin": 1327,
      "Ġwithout": 1328,
      "Ġprom": 1329,
      "pen": 1330,
      "Ġair": 1331,
      "ually": 1332,
      "ĠCan": 1333,
      "__": 1334,
      "avor": 1335,
      "Ġcall": 1336,
      "ĠDo": 1337,
      "ention": 1338,
      "ging": 1339,
      "ble": 1340,
      "Ġshowc": 1341,
      "Ġhighlight": 1342,
      "Ġdiscuss": 1343,
      "Ġcapt": 1344,
      "imate": 1345,
      "ĠĠĠĠĠĠĠĠ": 1346,
      "ĠThank": 1347,
      "Ġbeing": 1348,
      "Ġimpro": 1349,
      "Ġlar": 1350,
      "ave": 1351,
      "orn": 1352,
      "Ġaff": 1353,
      ":ĊĊ": 1354,
      "Ġfac": 1355,
      "Ġsystem": 1356,
      "Ġschool": 1357,
      "Ġencoura": 1358,
      "estiv": 1359,
      "Ġsuc": 1360,
      "Ġprot": 1361,
      "EC": 1362,
      "Ġmix": 1363,
      "Ġtell": 1364,
      "Ġnarr": 1365,
      "Ġaudience": 1366,
      "Ġothers": 1367,
      "ange": 1368,
      "ĠMay": 1369,
      "Ġquick": 1370,
      "Ġincluding": 1371,
      "actly": 1372,
      "ead": 1373,
      "Ġsty": 1374,
      "Ġtool": 1375,
      "aging": 1376,
      "Th": 1377,
      "?\"": 1378,
      "oot": 1379,
      "ards": 1380,
      "ins": 1381,
      "ger": 1382,
      "Ġreson": 1383,
      "ivity": 1384,
      "orts": 1385,
      "ically": 1386,
      "edic": 1387,
      "Ġnext": 1388,
      "ATOR": 1389,
      "erv": 1390,
      "Ġcur": 1391,
      "Ġnature": 1392,
      "Ġused": 1393,
      "Ġbus": 1394,
      "Ġalways": 1395,
      "Ġcount": 1396,
      "Ġcareer": 1397,
      "Ġident": 1398,
      "Ġensure": 1399,
      "Ġbring": 1400,
      "Ġclass": 1401,
      "Ġwrit": 1402,
      "Ġprovid": 1403,
      "lus": 1404,
      "Ġeconom": 1405,
      "Ġyoung": 1406,
      "thing": 1407,
      "iting": 1408,
      "Ġtru": 1409,
      "ering": 1410,
      "reen": 1411,
      "ov": 1412,
      "Ġability": 1413,
      "Ġbefore": 1414,
      "eg": 1415,
      "Ġthr": 1416,
      "Ġsec": 1417,
      "Ġprog": 1418,
      "ĠWhile": 1419,
      "Ġlit": 1420,
      "Ġfilled": 1421,
      "ights": 1422,
      "Ġtwo": 1423,
      "Ġcr": 1424,
      "Ġanother": 1425,
      "iss": 1426,
      "ĠIs": 1427,
      "Ġhome": 1428,
      "Ġsun": 1429,
      "Ġstrugg": 1430,
      "ergy": 1431,
      "Ġspecific": 1432,
      "Ġhistor": 1433,
      "ology": 1434,
      "ains": 1435,
      "resh": 1436,
      "ys": 1437,
      "Ġlevel": 1438,
      "io": 1439,
      "iety": 1440,
      "Ġtyp": 1441,
      "ĠYour": 1442,
      "ĠThere": 1443,
      "Ġanim": 1444,
      "ont": 1445,
      "ross": 1446,
      "ateg": 1447,
      "Ġfew": 1448,
      "Ġcra": 1449,
      "Ġaudiences": 1450,
      "ired": 1451,
      "Ġmodern": 1452,
      "Ġsuccess": 1453,
      "Ġallows": 1454,
      "air": 1455,
      "cy": 1456,
      "cept": 1457,
      "Ġviewers": 1458,
      "Ġapproach": 1459,
      "Ġareas": 1460,
      "ren": 1461,
      "aught": 1462,
      "Ġbecause": 1463,
      "Ġremind": 1464,
      "!\"": 1465,
      "Ġcheck": 1466,
      "Ġcreating": 1467,
      "Ġissues": 1468,
      "Ġmoments": 1469,
      "--------": 1470,
      "ability": 1471,
      "Ġhapp": 1472,
      "Ġmean": 1473,
      "Ġexplor": 1474,
      "Ġgener": 1475,
      "Ġdirect": 1476,
      "Ġspace": 1477,
      "'ll": 1478,
      "Ġdivers": 1479,
      "ted": 1480,
      "Ġrelations": 1481,
      "Ġrepres": 1482,
      "Ġaffect": 1483,
      "Ġele": 1484,
      "Ġappreciate": 1485,
      "Ġend": 1486,
      "ality": 1487,
      "Ġey": 1488,
      "Ġbeh": 1489,
      "Ġprovide": 1490,
      "MO": 1491,
      "ining": 1492,
      "Ġlay": 1493,
      "ason": 1494,
      "Ġpast": 1495,
      "Ġcar": 1496,
      "Ġcomb": 1497,
      "ogn": 1498,
      "Ġfeatures": 1499,
      "Ġinform": 1500,
      "DER": 1501,
      "Ġdevelopment": 1502,
      "Ġhard": 1503,
      "ages": 1504,
      "Ġparticular": 1505,
      "Ġtre": 1506,
      "Ġface": 1507,
      "ata": 1508,
      "Ġgames": 1509,
      "Ġleg": 1510,
      "ively": 1511,
      "Ġsocial": 1512,
      "DERATOR": 1513,
      "MODERATOR": 1514,
      "Ġless": 1515,
      "Ġopen": 1516,
      "abor": 1517,
      "Ġeduc": 1518,
      "ĠHowever": 1519,
      "Ġfestiv": 1520,
      "Ġroles": 1521,
      "Ġturn": 1522,
      "aterial": 1523,
      "Ġenergy": 1524,
      "Ġlands": 1525,
      "ĠOne": 1526,
      "Ġaway": 1527,
      "Ġprojects": 1528,
      "Ġpopular": 1529,
      "ĠAl": 1530,
      "ĠAd": 1531,
      "Ġrelationship": 1532,
      "ared": 1533,
      "Ġmaintain": 1534,
      "Ġfilms": 1535,
      "atural": 1536,
      "Ġfresh": 1537,
      "arch": 1538,
      "ty": 1539,
      "Ġnum": 1540,
      "Ġav": 1541,
      "ify": 1542,
      "Ġtem": 1543,
      "iful": 1544,
      "Ġdef": 1545,
      "Ġpractice": 1546,
      "Ġaut": 1547,
      "Ġgrowth": 1548,
      "ĠExactly": 1549,
      "Ġaspect": 1550,
      "Ġpot": 1551,
      "Ġsaid": 1552,
      "Ġspe": 1553,
      "Ġdon": 1554,
      "Ġgrou": 1555,
      "Ġseries": 1556,
      "Ġtraditional": 1557,
      "Ġshap": 1558,
      "Ġbest": 1559,
      "ination": 1560,
      "Ġprotect": 1561,
      "Ġresp": 1562,
      "Ġaction": 1563,
      "imes": 1564,
      "Ġstand": 1565,
      "Ġchanges": 1566,
      "Ġthings": 1567,
      "ns": 1568,
      "Ġpark": 1569,
      "Ġnear": 1570,
      "Ġorgan": 1571,
      "Ġbeautiful": 1572,
      "Ġlandsc": 1573,
      "fect": 1574,
      "Ġearly": 1575,
      "Ġfamil": 1576,
      "side": 1577,
      "Ġsever": 1578,
      "ĠWith": 1579,
      "Ġprep": 1580,
      "Ġconf": 1581,
      "pping": 1582,
      "Ġseveral": 1583,
      "Ġclear": 1584,
      "Ġno": 1585,
      "pportun": 1586,
      "Ġrecogn": 1587,
      "az": 1588,
      "ked": 1589,
      "ove": 1590,
      "Ġopportun": 1591,
      "Ġsol": 1592,
      "ĠAm": 1593,
      "ged": 1594,
      "over": 1595,
      "line": 1596,
      "Ġmaterial": 1597,
      "Ġstrateg": 1598,
      "Ġpie": 1599,
      "Ġallowing": 1600,
      "ec": 1601,
      "osp": 1602,
      "Ġconnection": 1603,
      "Ġbalance": 1604,
      "Ġkind": 1605,
      "Ġcrit": 1606,
      "ivid": 1607,
      "Ġmeans": 1608,
      "ext": 1609,
      "Ġpoint": 1610,
      "Ġold": 1611,
      "ots": 1612,
      "up": 1613,
      "Ġblend": 1614,
      "ĠMaybe": 1615,
      "Ġskills": 1616,
      "asure": 1617,
      "SU": 1618,
      "Ġspir": 1619,
      "Ġchild": 1620,
      "Ġstay": 1621,
      "Ġvibr": 1622,
      "To": 1623,
      "Ġnatural": 1624,
      "iver": 1625,
      "BJ": 1626,
      "Ġlives": 1627,
      "ECT": 1628,
      "BJECT": 1629,
      "SUBJECT": 1630,
      "aw": 1631,
      "Ġnow": 1632,
      "idents": 1633,
      "Ġemotional": 1634,
      "Ġdepth": 1635,
      "asting": 1636,
      "ĠSh": 1637,
      "ublic": 1638,
      "Ġsub": 1639,
      "Ġhistorical": 1640,
      "ats": 1641,
      "ustr": 1642,
      "Ġmust": 1643,
      "Ġrequ": 1644,
      "Ġwal": 1645,
      "omm": 1646,
      "ime": 1647,
      "work": 1648,
      "Ġaccess": 1649,
      "Ġhere": 1650,
      "Ġlist": 1651,
      "by": 1652,
      "Ġcontro": 1653,
      "Ġbegan": 1654,
      "Ġtour": 1655,
      "ems": 1656,
      "Ġbecome": 1657,
      "Ġmon": 1658,
      "Ġbeg": 1659,
      "Ġworks": 1660,
      "mb": 1661,
      "ush": 1662,
      "Ġpur": 1663,
      "Ġbro": 1664,
      "iness": 1665,
      "Ġflow": 1666,
      "Ġattract": 1667,
      "10": 1668,
      "Ġelect": 1669,
      "Ġvoice": 1670,
      "ources": 1671,
      "Ġsumm": 1672,
      "Ġnav": 1673,
      "Ġadapt": 1674,
      "Ġben": 1675,
      "Ġadvent": 1676,
      "Ġexpress": 1677,
      "ases": 1678,
      "ock": 1679,
      "Ġlooking": 1680,
      "Ġemb": 1681,
      "Ġdem": 1682,
      "Ġtest": 1683,
      "labor": 1684,
      "Ġopt": 1685,
      "Ġport": 1686,
      "Ġshows": 1687,
      "Ġcalled": 1688,
      "ely": 1689,
      "Ġpain": 1690,
      "Ġmed": 1691,
      "Ġideas": 1692,
      "af": 1693,
      "Ġinteresting": 1694,
      "agine": 1695,
      "asing": 1696,
      "read": 1697,
      "ee": 1698,
      "ived": 1699,
      "oose": 1700,
      "Ġcool": 1701,
      "Ġalong": 1702,
      "Ġbo": 1703,
      "Ġthen": 1704,
      "Ġcolor": 1705,
      "Ġvibrant": 1706,
      "Ġve": 1707,
      "Ġactiv": 1708,
      "Ġtalent": 1709,
      "Ġnavig": 1710,
      "Ġperformances": 1711,
      "Ġpassion": 1712,
      "Ġaw": 1713,
      "Ġsay": 1714,
      "Ġsame": 1715,
      "Ġfans": 1716,
      "Ġacting": 1717,
      "Ġcontinue": 1718,
      "ray": 1719,
      "Ġsomeone": 1720,
      "Ġfig": 1721,
      "Ġgather": 1722,
      "ilar": 1723,
      "Ġparticularly": 1724,
      "urb": 1725,
      "Ġrev": 1726,
      "Ġass": 1727,
      "Ġcommon": 1728,
      "just": 1729,
      "ner": 1730,
      "Ġagainst": 1731,
      "oices": 1732,
      "Ġequ": 1733,
      "cture": 1734,
      "Ġentertain": 1735,
      "Ġstreng": 1736,
      "Ġinteract": 1737,
      "Ġdata": 1738,
      "Ġhuman": 1739,
      "Ġelements": 1740,
      "ift": 1741,
      "Ġcook": 1742,
      "Ġcities": 1743,
      "amp": 1744,
      "Ġfiel": 1745,
      "acy": 1746,
      "ew": 1747,
      "Ġrun": 1748,
      "Ġsharing": 1749,
      "Ġimprove": 1750,
      "Ġprof": 1751,
      "Ġdedic": 1752,
      "Ġenhance": 1753,
      "Ġlearned": 1754,
      "fort": 1755,
      "Ġtools": 1756,
      "Ġsurround": 1757,
      "ĠFr": 1758,
      "Ġfas": 1759,
      "Ġplants": 1760,
      "Ġinfluence": 1761,
      "Ġways": 1762,
      "nam": 1763,
      "Ġcal": 1764,
      "Ġinclude": 1765,
      "ety": 1766,
      "Ġhelped": 1767,
      "Ġeverything": 1768,
      "ince": 1769,
      "ert": 1770,
      "Ġdraw": 1771,
      "ished": 1772,
      "Ġclean": 1773,
      "els": 1774,
      "Ġwithin": 1775,
      "com": 1776,
      "Ġinstance": 1777,
      "Ġwanted": 1778,
      "ĠMany": 1779,
      "ches": 1780,
      "rodu": 1781,
      "Ġplaces": 1782,
      "Ġlittle": 1783,
      "Ġland": 1784,
      "ĠAre": 1785,
      "mosp": 1786,
      "pped": 1787,
      "Ġsw": 1788,
      "Ġoffers": 1789,
      "Ġplayed": 1790,
      "Ġengaging": 1791,
      "Ġengage": 1792,
      "Ġtimes": 1793,
      "raph": 1794,
      "Ġchallenge": 1795,
      "Ġatmosp": 1796,
      "ek": 1797,
      "oods": 1798,
      "Ġamong": 1799,
      "Ġinfluen": 1800,
      "Ġvisual": 1801,
      "Ġclose": 1802,
      "Ġbreak": 1803,
      "Ġperfect": 1804,
      "und": 1805,
      "ody": 1806,
      "Ġwond": 1807,
      "uals": 1808,
      "Ġmat": 1809,
      "ull": 1810,
      "Ġappeal": 1811,
      "Ġstyle": 1812,
      "Ġneeds": 1813,
      "One": 1814,
      "Ġrepresent": 1815,
      "itive": 1816,
      "Ġresidents": 1817,
      "ms": 1818,
      "Ġfaced": 1819,
      "Ġspirit": 1820,
      "Ġpublic": 1821,
      "Ġquestions": 1822,
      "bers": 1823,
      "Ġattention": 1824,
      "ined": 1825,
      "Ġshape": 1826,
      "hy": 1827,
      "Ġbecame": 1828,
      "Ġfestivals": 1829,
      "Ġtechnology": 1830,
      "ven": 1831,
      "Ġidea": 1832,
      "izing": 1833,
      "Ġjoy": 1834,
      "Ġvital": 1835,
      "aves": 1836,
      "ighb": 1837,
      "Ġcommit": 1838,
      "rop": 1839,
      "Ġlive": 1840,
      "ground": 1841,
      "Ġsimilar": 1842,
      "Ġfeeling": 1843,
      "Ġris": 1844,
      "Ġret": 1845,
      "Ġdiverse": 1846,
      "Ġpolit": 1847,
      "ĠAn": 1848,
      "Ġname": 1849,
      "Ġtop": 1850,
      "chie": 1851,
      "Now": 1852,
      "Ġatmosphere": 1853,
      "Ġground": 1854,
      "ĠSp": 1855,
      "Ġacross": 1856,
      "Ġnarrative": 1857,
      "Ġincre": 1858,
      "Ġtelev": 1859,
      "Ġcond": 1860,
      "eplay": 1861,
      "When": 1862,
      "Ġunder": 1863,
      "Ġlearning": 1864,
      "-t": 1865,
      "Ġtelevision": 1866,
      "Ġinsights": 1867,
      "Ġshared": 1868,
      "Ġ=": 1869,
      "Ġtraditions": 1870,
      "Ġgameplay": 1871,
      "Ġactivities": 1872,
      "ex": 1873,
      "ĠHer": 1874,
      "ients": 1875,
      "ming": 1876,
      "ants": 1877,
      "aj": 1878,
      "ries": 1879,
      "Ġfur": 1880,
      "Ġconclus": 1881,
      "Ġbright": 1882,
      "Ġest": 1883,
      "Ġfact": 1884,
      "Ġdetail": 1885,
      "Ġserv": 1886,
      "por": 1887,
      "Ġeyes": 1888,
      "Ġgover": 1889,
      "Ġcontrol": 1890,
      "Ġrest": 1891,
      "ium": 1892,
      "aughter": 1893,
      "Ġfavor": 1894,
      "Ġwatch": 1895,
      "Ġindivid": 1896,
      "ĠUn": 1897,
      "ilities": 1898,
      "Ġmaterials": 1899,
      "ĠTo": 1900,
      "Ġregion": 1901,
      "-s": 1902,
      "ows": 1903,
      "Ġmult": 1904,
      "vent": 1905,
      "Ġidentity": 1906,
      "Ġbegin": 1907,
      "Ġ$": 1908,
      "Ġwriting": 1909,
      "Ġinformation": 1910,
      "ale": 1911,
      "Ġgovern": 1912,
      "ior": 1913,
      "ĠSome": 1914,
      "Ġseason": 1915,
      "Ġside": 1916,
      "Ġwhy": 1917,
      "oun": 1918,
      "Ġob": 1919,
      "Ġbook": 1920,
      "Ġste": 1921,
      "Ġcomes": 1922,
      "Ġneighb": 1923,
      "ulation": 1924,
      "Ġproduct": 1925,
      "ancing": 1926,
      "Ġobs": 1927,
      "Ġbeauty": 1928,
      "ĠCl": 1929,
      "Ġworking": 1930,
      "olution": 1931,
      "ream": 1932,
      "Ġimm": 1933,
      "Ġexcite": 1934,
      "Ġcontinues": 1935,
      "-p": 1936,
      "Ġquickly": 1937,
      "Ġachie": 1938,
      "Ġbelieve": 1939,
      "Ġmeth": 1940,
      "Ġlandscape": 1941,
      "Ġgive": 1942,
      "oss": 1943,
      "Ġyourself": 1944,
      "Ġrese": 1945,
      "Ġrelationships": 1946,
      "Ġevol": 1947,
      "ids": 1948,
      "Ġperformance": 1949,
      "Ġconclusion": 1950,
      "Ġoffer": 1951,
      "Ġexcitement": 1952,
      "Ġvers": 1953,
      "eric": 1954,
      "ĠAr": 1955,
      "Ġcollabor": 1956,
      "phas": 1957,
      "Ġactors": 1958,
      "Ġhumor": 1959,
      "Ġpowerful": 1960,
      "Ġpotential": 1961,
      "Ġbased": 1962,
      "atives": 1963,
      "Ġstudy": 1964,
      "anced": 1965,
      "Ġforward": 1966,
      "Ġbit": 1967,
      "Ġbehind": 1968,
      "Ġemphas": 1969,
      "urban": 1970,
      "St": 1971,
      "Ġlarger": 1972,
      "ouse": 1973,
      "Ġpress": 1974,
      "for": 1975,
      "Ġcomfort": 1976,
      ":**": 1977,
      "Ġdram": 1978,
      "Ġwonder": 1979,
      "yond": 1980,
      "Ġaim": 1981,
      "rast": 1982,
      "Ġfriend": 1983,
      "Ġwind": 1984,
      "Ġsitu": 1985,
      "Ġensuring": 1986,
      "Ġjoin": 1987,
      "Ġcompet": 1988,
      "Ġmot": 1989,
      "Ġguess": 1990,
      "nov": 1991,
      "Ġadjust": 1992,
      "less": 1993,
      "ides": 1994,
      "port": 1995,
      "Ġcor": 1996,
      "Ġeducation": 1997,
      "Ġpresent": 1998,
      "str": 1999,
      "ĠRe": 2000,
      "ograph": 2001,
      "Ġrout": 2002,
      "oor": 2003,
      "Ġtrack": 2004,
      "Wh": 2005,
      "Ġplays": 2006,
      "Ġtravel": 2007,
      "Ġinvolved": 2008,
      "An": 2009,
      "ug": 2010,
      "200": 2011,
      "Ġspot": 2012,
      "atic": 2013,
      "ricult": 2014,
      "ĠInd": 2015,
      "Ġbenef": 2016,
      "Ġmess": 2017,
      "Ġdeeper": 2018,
      "Ġsoil": 2019,
      "ĠJake": 2020,
      "Ġrele": 2021,
      "Ġgroup": 2022,
      "ervation": 2023,
      "Ġvery": 2024,
      "angu": 2025,
      "fully": 2026,
      "Ġgain": 2027,
      "rought": 2028,
      "Ġliving": 2029,
      "Ġdy": 2030,
      "Ġtrue": 2031,
      "Ġge": 2032,
      "ball": 2033,
      "Ġlaughter": 2034,
      "Ġquality": 2035,
      "ustain": 2036,
      "Ġstudents": 2037,
      "Ġstrength": 2038,
      "Ġpath": 2039,
      "Ġmind": 2040,
      "Ġtemper": 2041,
      "ĠLike": 2042,
      "Ġill": 2043,
      "Ġvisitors": 2044,
      "Ġcollect": 2045,
      "Ġfoot": 2046,
      "Ġperspect": 2047,
      "ĠAdd": 2048,
      "Ġrepl": 2049,
      "ening": 2050,
      "abl": 2051,
      "-d": 2052,
      "ibility": 2053,
      "ips": 2054,
      "Ġbas": 2055,
      "Ġrain": 2056,
      "Ġsafety": 2057,
      "yc": 2058,
      "Ġfeels": 2059,
      "rew": 2060,
      "Ġmanage": 2061,
      "Ġgard": 2062,
      "Ġfurther": 2063,
      "Ġcolors": 2064,
      "Ġreflects": 2065,
      "Ġready": 2066,
      "Ġopportunities": 2067,
      "Ġstruggles": 2068,
      "Ġtook": 2069,
      "Ġoverall": 2070,
      "ters": 2071,
      "Ġproper": 2072,
      "Ġconvers": 2073,
      "Ġbroad": 2074,
      "Ġsometimes": 2075,
      "pr": 2076,
      "Ġleft": 2077,
      "ĠAmeric": 2078,
      "Ġheard": 2079,
      "Ġseen": 2080,
      "ĠPro": 2081,
      "Ġsl": 2082,
      "Ġfamilies": 2083,
      "Ġpoints": 2084,
      "istic": 2085,
      "ury": 2086,
      "Ġcreativity": 2087,
      "Ġrece": 2088,
      "Ġer": 2089,
      "nderstand": 2090,
      "ash": 2091,
      "Ġresonate": 2092,
      "aps": 2093,
      "bit": 2094,
      "ched": 2095,
      "Ġlim": 2096,
      "Ġbusiness": 2097,
      "cc": 2098,
      "ued": 2099,
      "Ġproble": 2100,
      "ables": 2101,
      "Ġpiece": 2102,
      "ĠĠĠ": 2103,
      "Ġleading": 2104,
      "Ġagricult": 2105,
      "ĠPlay": 2106,
      "Ġnotable": 2107,
      "Ġcertain": 2108,
      "Ġtast": 2109,
      "Ġmaybe": 2110,
      "Ġsafe": 2111,
      "Ġroom": 2112,
      "Ġadds": 2113,
      "Ġclimate": 2114,
      "Ġvariety": 2115,
      "ently": 2116,
      "cient": 2117,
      "Ġportray": 2118,
      "Ġbreat": 2119,
      "Ġresources": 2120,
      "Ġchildren": 2121,
      "Ġpractices": 2122,
      "Ġfish": 2123,
      "Ġstra": 2124,
      "Ġserves": 2125,
      "Ġfavorite": 2126,
      "nderstanding": 2127,
      "Ġcommitment": 2128,
      "Ġsoft": 2129,
      "After": 2130,
      "cin": 2131,
      "Ġyear": 2132,
      "rite": 2133,
      "ĠPl": 2134,
      "Ġremains": 2135,
      "Ġsustain": 2136,
      "Ġconcept": 2137,
      "Ġpromot": 2138,
      "Ġcost": 2139,
      "ĠAfter": 2140,
      "alax": 2141,
      "orth": 2142,
      "ization": 2143,
      "Ġquestion": 2144,
      "Ġsteps": 2145,
      "Ġadventure": 2146,
      "Ġproduction": 2147,
      "Ġshort": 2148,
      "Ġbra": 2149,
      "Ġlangu": 2150,
      "Ġhead": 2151,
      "ĠJust": 2152,
      "Ġpatter": 2153,
      "Ġscene": 2154,
      "Ġdark": 2155,
      "Ġbrought": 2156,
      "Ġwords": 2157,
      "ik": 2158,
      "Ġline": 2159,
      "Ġmor": 2160,
      "Ġhaving": 2161,
      "ishing": 2162,
      "ĠWhy": 2163,
      "!Ċ": 2164,
      "Ġstars": 2165,
      "Ġmeet": 2166,
      "Ġredu": 2167,
      "Ġprogram": 2168,
      "Ġurban": 2169,
      "Ġinvest": 2170,
      "Ġterm": 2171,
      "Ġbackground": 2172,
      "Ġbeyond": 2173,
      "oid": 2174,
      "arah": 2175,
      "ĠWell": 2176,
      "ires": 2177,
      "Ġhon": 2178,
      "____": 2179,
      "Ġmiss": 2180,
      "Ġtransform": 2181,
      "Ġexploring": 2182,
      "ustom": 2183,
      "Ġhold": 2184,
      "Ġprogress": 2185,
      "Ġthroughout": 2186,
      "Ġcontributions": 2187,
      "Ġcreated": 2188,
      "Ġorig": 2189,
      "Ġposs": 2190,
      "Ġmarket": 2191,
      "come": 2192,
      "ĠLet": 2193,
      "olutely": 2194,
      "Ġtalk": 2195,
      "ĠUse": 2196,
      "Ġmil": 2197,
      "Ġreach": 2198,
      "Ġbecom": 2199,
      "den": 2200,
      "Ġeconomy": 2201,
      "ĠBe": 2202,
      "ĠKe": 2203,
      "aly": 2204,
      "Ġfigure": 2205,
      "ĠNow": 2206,
      "Ġeasy": 2207,
      "Ġdynam": 2208,
      "Ġcommunities": 2209,
      "ĠMy": 2210,
      "Ġestabl": 2211,
      "Ġcast": 2212,
      "zz": 2213,
      "Ġsmo": 2214,
      "hent": 2215,
      "RE": 2216,
      "inal": 2217,
      "Ġsignificance": 2218,
      "inite": 2219,
      "Ġgalax": 2220,
      "Ġintrodu": 2221,
      "Ġweek": 2222,
      "ĠWor": 2223,
      "Ġheav": 2224,
      "Ġrange": 2225,
      "Ġanimals": 2226,
      "Ġworked": 2227,
      "Ġwide": 2228,
      "alls": 2229,
      "tern": 2230,
      "Ġcraft": 2231,
      "back": 2232,
      "Ġchoices": 2233,
      "land": 2234,
      "magine": 2235,
      "Ġbuilding": 2236,
      "Ġtrying": 2237,
      "atform": 2238,
      "Ġmov": 2239,
      "Ġentertainment": 2240,
      "iring": 2241,
      "Ġevent": 2242,
      "Ġsetting": 2243,
      "Ġnearby": 2244,
      "ĠHere": 2245,
      "Ġpref": 2246,
      "Ġoutside": 2247,
      "Ġfore": 2248,
      "ises": 2249,
      "Ġtou": 2250,
      "Ġfost": 2251,
      "Ġauthent": 2252,
      "sing": 2253,
      "Ġda": 2254,
      "Ġlegacy": 2255,
      "mbol": 2256,
      "ĠSam": 2257,
      "Ġfascin": 2258,
      "Another": 2259,
      "Ġemotions": 2260,
      "Ġdedication": 2261,
      "ĠTheir": 2262,
      "ĠZ": 2263,
      "Ġserve": 2264,
      "Ġtypes": 2265,
      "Ġchoose": 2266,
      "hood": 2267,
      "This": 2268,
      "Ġfit": 2269,
      "Ġstructure": 2270,
      "Ġhear": 2271,
      "Ġsong": 2272,
      "bsolutely": 2273,
      "Ġcommunic": 2274,
      "aving": 2275,
      "ara": 2276,
      "Ġdishes": 2277,
      "ending": 2278,
      "initely": 2279,
      "Ġwa": 2280,
      "ĠThose": 2281,
      "tend": 2282,
      "Ġeffectively": 2283,
      "iven": 2284,
      "-f": 2285,
      "Ġweather": 2286,
      "Ġphys": 2287,
      "Ġconst": 2288,
      "Ġefforts": 2289,
      "Ġthoughts": 2290,
      "pected": 2291,
      "itage": 2292,
      "Ġtype": 2293,
      "Ġplatform": 2294,
      "Ġparticip": 2295,
      "Ġscient": 2296,
      "Ġing": 2297,
      "Ġrespons": 2298,
      "arth": 2299,
      "Ġstarted": 2300,
      "Ġarr": 2301,
      "Ġinnov": 2302,
      "Ġbuil": 2303,
      "cul": 2304,
      "Ġusually": 2305,
      "izes": 2306,
      "iod": 2307,
      "Ġneighbor": 2308,
      "Ġel": 2309,
      "Ġsat": 2310,
      "iques": 2311,
      "oh": 2312,
      "chan": 2313,
      "ops": 2314,
      "Ġpolitical": 2315,
      "Ġaddress": 2316,
      "Ġguide": 2317,
      "Ġconditions": 2318,
      "oday": 2319,
      "Ġfeed": 2320,
      "Ġhor": 2321,
      "Ġsymbol": 2322,
      "Ġsn": 2323,
      "'d": 2324,
      "Ġtens": 2325,
      "ajor": 2326,
      "ĠAbsolutely": 2327,
      "Ġdev": 2328,
      "Ġspark": 2329,
      "Ġremain": 2330,
      "Ġnavigate": 2331,
      "att": 2332,
      "ĠIts": 2333,
      "Ġsuper": 2334,
      "ĠCon": 2335,
      "Ġdig": 2336,
      "Ġtit": 2337,
      "ese": 2338,
      "Ġaddition": 2339,
      "ledge": 2340,
      "Ġplaying": 2341,
      "Ġhour": 2342,
      "Ġincludes": 2343,
      "Ġpan": 2344,
      "Ġarch": 2345,
      "ĠLe": 2346,
      "Ġlater": 2347,
      "Ġpict": 2348,
      "Ġcapture": 2349,
      "Ġresil": 2350,
      "uable": 2351,
      "tra": 2352,
      "Ġresearch": 2353,
      "Ġauthentic": 2354,
      "ests": 2355,
      "Ġachieve": 2356,
      "Ġcustom": 2357,
      "Ġparts": 2358,
      "Ġhol": 2359,
      "Ġgrowing": 2360,
      "Ġitems": 2361,
      "Ġsurf": 2362,
      "Ġfollowing": 2363,
      "Ġresult": 2364,
      "Ġtext": 2365,
      "Ġchoice": 2366,
      "Ġseem": 2367,
      "ystem": 2368,
      "Ġaspects": 2369,
      "ĠUnderstanding": 2370,
      "Ġadm": 2371,
      "Ġingred": 2372,
      "Ġcelebrate": 2373,
      "Ġweight": 2374,
      "ĠWhe": 2375,
      "ĠSarah": 2376,
      "Ġmeaning": 2377,
      "Ġshowcasing": 2378,
      "Ġclos": 2379,
      "Ġeasier": 2380,
      "lex": 2381,
      "Ġexploration": 2382,
      "Ġdue": 2383,
      "-c": 2384,
      "Ġparks": 2385,
      "Ġfilmm": 2386,
      "Ġembra": 2387,
      "uck": 2388,
      "Ġlevels": 2389,
      "Ġsect": 2390,
      "Ġhom": 2391,
      "You": 2392,
      "Ġinit": 2393,
      "Ġeat": 2394,
      "ones": 2395,
      "iment": 2396,
      "Ġveget": 2397,
      "Ġbud": 2398,
      "ĠPe": 2399,
      "rent": 2400,
      "Ġheritage": 2401,
      "Ġdifference": 2402,
      "ode": 2403,
      "Ġfamous": 2404,
      "Ġdish": 2405,
      "Ġnote": 2406,
      "Ġtrade": 2407,
      "Ġunivers": 2408,
      "rect": 2409,
      "Ġfield": 2410,
      "oon": 2411,
      "hel": 2412,
      "Ġfriendship": 2413,
      "itionally": 2414,
      "isions": 2415,
      "Ġinspired": 2416,
      "Ġdream": 2417,
      "ok": 2418,
      "utes": 2419,
      "Ġcritical": 2420,
      "Ġroad": 2421,
      "aper": 2422,
      "rap": 2423,
      "Ġeconomic": 2424,
      "Ġmedia": 2425,
      "Ġactor": 2426,
      "Ġmag": 2427,
      "ral": 2428,
      "Ġvol": 2429,
      "Ġbody": 2430,
      "Ġcultures": 2431,
      "Ġspecies": 2432,
      "Ġnam": 2433,
      "Ġstun": 2434,
      "Ġbir": 2435,
      "Ġreminder": 2436,
      "Ġsince": 2437,
      "ĠQ": 2438,
      "Ġfascinating": 2439,
      "oes": 2440,
      "Ġcut": 2441,
      "Ġeffic": 2442,
      "Ġapart": 2443,
      "Ġmemories": 2444,
      "rip": 2445,
      "Ġdeterm": 2446,
      "Ġaware": 2447,
      "Ġstands": 2448,
      "Ġlarge": 2449,
      "Ġenvironmental": 2450,
      "Ġwom": 2451,
      "sel": 2452,
      "ĠMar": 2453,
      "Ġillustr": 2454,
      "Ġgoing": 2455,
      "ĠGreat": 2456,
      "Ġhabit": 2457,
      "Ġancient": 2458,
      "Ġavail": 2459,
      "ĠJam": 2460,
      "avors": 2461,
      "Ġinspire": 2462,
      "Ġdays": 2463,
      "Ġcooking": 2464,
      "ised": 2465,
      "Ġthree": 2466,
      "aged": 2467,
      "Ġquite": 2468,
      "Ġcreative": 2469,
      "Ġenough": 2470,
      "cer": 2471,
      "ror": 2472,
      "Ġsugg": 2473,
      "Ġneeded": 2474,
      "ends": 2475,
      "Ġmajor": 2476,
      "Ġscreen": 2477,
      "Ġgreen": 2478,
      "Ġexciting": 2479,
      "Ġtransport": 2480,
      "Ġanyone": 2481,
      "Ġwin": 2482,
      "ump": 2483,
      "Ġintern": 2484,
      "Ġprim": 2485,
      "Ġmyself": 2486,
      "let": 2487,
      "Ġbrings": 2488,
      "ze": 2489,
      "Ġoptions": 2490,
      "Ġlast": 2491,
      "Ġnumber": 2492,
      "Ġgaming": 2493,
      "15": 2494,
      "Ġlocated": 2495,
      "aim": 2496,
      "aches": 2497,
      "selves": 2498,
      "Ġflavor": 2499,
      "Ġprovides": 2500,
      "ĠNew": 2501,
      "Ġswe": 2502,
      "ffee": 2503,
      "Ġtechniques": 2504,
      "Ġfre": 2505,
      "Ġocc": 2506,
      "Ġprofess": 2507,
      "Ġjob": 2508,
      "ency": 2509,
      "Ġtakes": 2510,
      "Ġstate": 2511,
      "Ġslow": 2512,
      "Ġput": 2513,
      "Ġcharm": 2514,
      "Ġnight": 2515,
      "Ġwhether": 2516,
      "Ġmeasure": 2517,
      "Ġgraph": 2518,
      "play": 2519,
      "Ġfeature": 2520,
      "der": 2521,
      "Ġeffective": 2522,
      "Ġbroader": 2523,
      "Ġconfl": 2524,
      "Ġvalues": 2525,
      "ource": 2526,
      "bo": 2527,
      "Ġallowed": 2528,
      "Ġyet": 2529,
      "ĠWhether": 2530,
      "Ġresilience": 2531,
      "head": 2532,
      "Ġplanning": 2533,
      "201": 2534,
      "Ġmechan": 2535,
      "aster": 2536,
      "Ġthrill": 2537,
      "idence": 2538,
      "Ġartists": 2539,
      "Ġmemor": 2540,
      "Ġrelat": 2541,
      "Ġingredients": 2542,
      "Ġtaking": 2543,
      "Ġsens": 2544,
      "ument": 2545,
      "row": 2546,
      "Ġsports": 2547,
      "Ġmatter": 2548,
      "Ġknowledge": 2549,
      "ĠRem": 2550,
      "pite": 2551,
      "iar": 2552,
      "omp": 2553,
      "irc": 2554,
      "Ġhighlights": 2555,
      "inally": 2556,
      "Ġprin": 2557,
      "Ġpopulation": 2558,
      "Ġlasting": 2559,
      "Ġtreat": 2560,
      "Ġbuildings": 2561,
      "ians": 2562,
      "Ġsing": 2563,
      "Ġmap": 2564,
      "Ġtas": 2565,
      "Ġsett": 2566,
      "Ġlikely": 2567,
      "Let": 2568,
      "Ġvaluable": 2569,
      "Ġgenerations": 2570,
      "ĠEm": 2571,
      "Ġconnections": 2572,
      "Ġcorn": 2573,
      "nces": 2574,
      "ences": 2575,
      "Ġposition": 2576,
      "Ġchallenging": 2577,
      "Ġagree": 2578,
      "ina": 2579,
      "Ġindividuals": 2580,
      "Ġvide": 2581,
      "eds": 2582,
      "Ġled": 2583,
      "aur": 2584,
      "Ġavoid": 2585,
      "ament": 2586,
      "Ġcoffee": 2587,
      "``": 2588,
      "rops": 2589,
      "ief": 2590,
      "Ġgoal": 2591,
      "oing": 2592,
      "Ġlanguage": 2593,
      "ĠKeep": 2594,
      "ological": 2595,
      "oring": 2596,
      "Once": 2597,
      "Ġlisten": 2598,
      "Ġquiet": 2599,
      "Ġtension": 2600,
      "18": 2601,
      "Ġcame": 2602,
      "Ġcap": 2603,
      "Ġsmaller": 2604,
      "Ġcin": 2605,
      "ades": 2606,
      "Ġclassic": 2607,
      "Ġcurrent": 2608,
      "ĠToday": 2609,
      "Ġcatch": 2610,
      "Ġscience": 2611,
      "Ġcontribute": 2612,
      "Ġlif": 2613,
      "Ġmonth": 2614,
      "ane": 2615,
      "Ġwood": 2616,
      "Ġkeeping": 2617,
      "Ġproviding": 2618,
      "Ġrelatable": 2619,
      "ret": 2620,
      "outh": 2621,
      "lications": 2622,
      "Ġtrees": 2623,
      "Ġrespect": 2624,
      "Next": 2625,
      "Ġfocused": 2626,
      "aced": 2627,
      "?\"ĊĊ": 2628,
      "Ġgovernment": 2629,
      "Ġoper": 2630,
      "Ġtable": 2631,
      "Ġinf": 2632,
      "Ġnotice": 2633,
      "arl": 2634,
      "itch": 2635,
      "Ġdesc": 2636,
      "Ġconcern": 2637,
      "Ġdelic": 2638,
      "Ġsqu": 2639,
      "Ġdry": 2640,
      "Ġtow": 2641,
      "icult": 2642,
      "ĠCol": 2643,
      "Ġkit": 2644,
      "Ġsystems": 2645,
      "ĠNot": 2646,
      "ival": 2647,
      "Ġdecisions": 2648,
      "ĠEng": 2649,
      "osystem": 2650,
      "Ġavailable": 2651,
      "Ġmemorable": 2652,
      "itect": 2653,
      "Ġleaves": 2654,
      "Ġdaily": 2655,
      "inct": 2656,
      "Ġserious": 2657,
      "Ġscenes": 2658,
      "to": 2659,
      "Ġlau": 2660,
      "Ġcolorful": 2661,
      "rig": 2662,
      "eng": 2663,
      "Ġsociety": 2664,
      "SI": 2665,
      "ĠAt": 2666,
      "heck": 2667,
      "Ġencourages": 2668,
      "Ġstore": 2669,
      "Ġment": 2670,
      "ĠRight": 2671,
      "aling": 2672,
      "Ġchem": 2673,
      "Ġtoward": 2674,
      "Ġflavors": 2675,
      "Ġhands": 2676,
      "ĠAmerican": 2677,
      "Ġecosystem": 2678,
      "nown": 2679,
      "Ġpatterns": 2680,
      "ny": 2681,
      "Ġshaped": 2682,
      "Ġsummary": 2683,
      "Ġkids": 2684,
      "Ġstage": 2685,
      "ĠDe": 2686,
      "imately": 2687,
      "Ġpreser": 2688,
      "Ġleaders": 2689,
      "ites": 2690,
      "Ġcentury": 2691,
      "Ġpurs": 2692,
      "Ġlog": 2693,
      "oke": 2694,
      "life": 2695,
      "Ġla": 2696,
      "Ġarchitect": 2697,
      "Ġonce": 2698,
      "Ġcontrast": 2699,
      "Ġcinem": 2700,
      "Ġcenter": 2701,
      "Ġmulti": 2702,
      "Ġcountry": 2703,
      "Ġfeet": 2704,
      "Ġkeeps": 2705,
      "Ġtough": 2706,
      "30": 2707,
      "Ġcorrect": 2708,
      "rad": 2709,
      "oney": 2710,
      "Ġconnected": 2711,
      "Ġcam": 2712,
      "Ġgarden": 2713,
      "Ġtemperature": 2714,
      "ear": 2715,
      "Ġunt": 2716,
      "Ġservices": 2717,
      "Ġprevent": 2718,
      "Ġchance": 2719,
      "Ġwel": 2720,
      "Ġlessons": 2721,
      "Ġnut": 2722,
      "na": 2723,
      "Ġmoving": 2724,
      "ron": 2725,
      "Ġadding": 2726,
      "Ġexcited": 2727,
      "iced": 2728,
      "ton": 2729,
      "ĠPlayers": 2730,
      "Ġwrite": 2731,
      "Ġvalue": 2732,
      "Ġsurv": 2733,
      "Ġminutes": 2734,
      "iate": 2735,
      "Ġbase": 2736,
      "Ġcomed": 2737,
      "Ġsupp": 2738,
      "What": 2739,
      "Ġfinal": 2740,
      "Ġencourage": 2741,
      "Ġtruly": 2742,
      "Ġwild": 2743,
      "Ġrob": 2744,
      "Ġple": 2745,
      "Ġdifficult": 2746,
      "ĠMe": 2747,
      "Ġcomplete": 2748,
      "ude": 2749,
      "onds": 2750,
      "ĠSc": 2751,
      "Ġheat": 2752,
      "Ġbudget": 2753,
      "Ġmount": 2754,
      "ography": 2755,
      "Ġlow": 2756,
      "Ġpred": 2757,
      "Ġfree": 2758,
      "ĠLook": 2759,
      "Ġsmooth": 2760,
      "Ġfar": 2761,
      "Ġlocation": 2762,
      "Ġstyles": 2763,
      "ager": 2764,
      "uzz": 2765,
      "Ġ|Ċ": 2766,
      "Ġsky": 2767,
      "Ġhelping": 2768,
      "man": 2769,
      "12": 2770,
      "Ġstraight": 2771,
      "view": 2772,
      "Ġperspective": 2773,
      "It": 2774,
      "hem": 2775,
      "Ġterms": 2776,
      "Ġhours": 2777,
      "ios": 2778,
      "SIDENT": 2779,
      "RESIDENT": 2780,
      "apan": 2781,
      "Ġgives": 2782,
      "Ġmarked": 2783,
      "How": 2784,
      "Ġrock": 2785,
      "ĠPeople": 2786,
      "Ġenjoyed": 2787,
      "Ġfru": 2788,
      "Ġfunction": 2789,
      "Ġever": 2790,
      "Ġtone": 2791,
      "Ġschools": 2792,
      "ods": 2793,
      "Ġobject": 2794,
      "Ġinfluenced": 2795,
      "Ġsent": 2796,
      "Ġlate": 2797,
      "Ġroll": 2798,
      "Ġfire": 2799,
      "Ġexce": 2800,
      "Ġonline": 2801,
      "Ġfeelings": 2802,
      "akers": 2803,
      "Ġcirc": 2804,
      "Ġsolid": 2805,
      "Ġsal": 2806,
      "ĠComm": 2807,
      "Ġselect": 2808,
      "Ġreve": 2809,
      "Ġfull": 2810,
      "Ġgoals": 2811,
      "eah": 2812,
      "orpor": 2813,
      "ĠBl": 2814,
      "ounter": 2815,
      "Ġdiscussions": 2816,
      "ĠEvery": 2817,
      "ai": 2818,
      "Ġpo": 2819,
      "ring": 2820,
      "ĠSe": 2821,
      "Ġmovement": 2822,
      "Ġpaper": 2823,
      "Ġpeace": 2824,
      "Ġthemselves": 2825,
      "Ġdiscover": 2826,
      "Ġpost": 2827,
      "Ġtaste": 2828,
      "iking": 2829,
      "ached": 2830,
      "Ġkn": 2831,
      "Ġcontext": 2832,
      "Ġsurface": 2833,
      "ĠEn": 2834,
      "Ġwalk": 2835,
      "Ġcour": 2836,
      "iration": 2837,
      "ung": 2838,
      "new": 2839,
      "Ġturned": 2840,
      "Ġdesigned": 2841,
      "Ġmaintaining": 2842,
      "Ġspaces": 2843,
      "Ġwarmth": 2844,
      "Ġitself": 2845,
      "Ġbuilt": 2846,
      "Ġfast": 2847,
      "Ġadded": 2848,
      "Ġregular": 2849,
      "acing": 2850,
      "Ġpositive": 2851,
      "ĠJapan": 2852,
      "azing": 2853,
      "Ġhot": 2854,
      "Ġbusinesses": 2855,
      "Ġimpress": 2856,
      "ĠOn": 2857,
      "Ġvill": 2858,
      "ĠDes": 2859,
      "Ġoutd": 2860,
      "Ġphot": 2861,
      "Ġvideo": 2862,
      "Ġexperiment": 2863,
      "hyth": 2864,
      "urning": 2865,
      "acks": 2866,
      "ills": 2867,
      "Ġcompared": 2868,
      "Ġplayer": 2869,
      "astic": 2870,
      "ples": 2871,
      "ĠAdditionally": 2872,
      "Ġdi": 2873,
      "ĠFrom": 2874,
      "Ġeffects": 2875,
      "Ġuntil": 2876,
      "Ġmessage": 2877,
      "Ġfaces": 2878,
      "Ġpay": 2879,
      "Ġz": 2880,
      "Ġelse": 2881,
      "Ġpressure": 2882,
      "Ġtree": 2883,
      "Ġcu": 2884,
      "Ġrise": 2885,
      "Ġlayer": 2886,
      "Ġrul": 2887,
      "Ġreact": 2888,
      "ĠMake": 2889,
      "ened": 2890,
      "Ġdeeply": 2891,
      "Ġvegetables": 2892,
      "Ġsuggest": 2893,
      "Ġstar": 2894,
      "ĠGood": 2895,
      "Ġfight": 2896,
      "chen": 2897,
      "Ġperiod": 2898,
      "ript": 2899,
      "Ġdidn": 2900,
      "Ġtraining": 2901,
      "Ġrequire": 2902,
      "rog": 2903,
      "Ġdrama": 2904,
      "Ġapply": 2905,
      "Ġgroups": 2906,
      "-m": 2907,
      "Ġphysical": 2908,
      "ably": 2909,
      "Ġchanged": 2910,
      "Ġhig": 2911,
      "Ġsignificantly": 2912,
      "For": 2913,
      "Ġexpect": 2914,
      "Ġemerg": 2915,
      "ĠImagine": 2916,
      "Ġleave": 2917,
      "Ġang": 2918,
      "Ġstrategies": 2919,
      "ising": 2920,
      "Ġprepare": 2921,
      "Ġbox": 2922,
      "list": 2923,
      "Ġloss": 2924,
      "ares": 2925,
      "Ġtypically": 2926,
      "aries": 2927,
      "vey": 2928,
      "Ġsweet": 2929,
      "Ġnarratives": 2930,
      "iding": 2931,
      "Ġeveryday": 2932,
      "Ġtouch": 2933,
      "eed": 2934,
      "ĠSu": 2935,
      "Ġcontinued": 2936,
      "efore": 2937,
      "Ġthrive": 2938,
      "ky": 2939,
      "Ġspread": 2940,
      "ators": 2941,
      "Ġeasily": 2942,
      "Ġpat": 2943,
      "ffic": 2944,
      "Ġversat": 2945,
      "Ġsil": 2946,
      "Ġrather": 2947,
      "onstr": 2948,
      "Ġnecess": 2949,
      "Ġsurrounding": 2950,
      "-b": 2951,
      "Ġreturn": 2952,
      "Ġcraf": 2953,
      "If": 2954,
      "ided": 2955,
      "ute": 2956,
      "Ġunc": 2957,
      "Ġthinking": 2958,
      "Ġwatching": 2959,
      "Ġpick": 2960,
      "Ġenvironments": 2961,
      "Ġpresence": 2962,
      "Ġstood": 2963,
      "ator": 2964,
      "Ġtourism": 2965,
      "Ġcrops": 2966,
      "199": 2967,
      "unch": 2968,
      "Ġengine": 2969,
      "Ġfamiliar": 2970,
      "Ġfarming": 2971,
      "Ġshift": 2972,
      "Ġdistinct": 2973,
      "ĠRemember": 2974,
      "ded": 2975,
      "Ġmovie": 2976,
      "ĠPlus": 2977,
      "Ġreceived": 2978,
      "Ġmethods": 2979,
      "onsider": 2980,
      "ura": 2981,
      "Ġmultiple": 2982,
      "Ġrhyth": 2983,
      "Ġspeed": 2984,
      "Ġeye": 2985,
      "Ġhouse": 2986,
      "Ġage": 2987,
      "Ġdoc": 2988,
      "Ġcreates": 2989,
      "erc": 2990,
      "Ġpar": 2991,
      "epend": 2992,
      "Ġdemonstr": 2993,
      "-k": 2994,
      "Ġactually": 2995,
      "Ġdigital": 2996,
      "Ġcou": 2997,
      "Ġagriculture": 2998,
      "Ġtheater": 2999,
      "ĠJamie": 3000,
      "Ġappealing": 3001,
      "Ġindic": 3002,
      "Ġartist": 3003,
      "Ġarts": 3004,
      "ctions": 3005,
      "Ġemp": 3006,
      "Ġinside": 3007,
      "Ġ[": 3008,
      "Ġcomplexities": 3009,
      "Ġlooked": 3010,
      "Ġstreets": 3011,
      "ĠInst": 3012,
      "hers": 3013,
      "Ġcat": 3014,
      "We": 3015,
      "ĠJoh": 3016,
      "Ġpuzz": 3017,
      "Ġcase": 3018,
      "?Ċ": 3019,
      "Ġuses": 3020,
      "Ġstunning": 3021,
      "Ġrelax": 3022,
      "Ġstruggle": 3023,
      "Ġincred": 3024,
      "Ġamazing": 3025,
      "inary": 3026,
      "Ġnice": 3027,
      "tic": 3028,
      "Ġwat": 3029,
      "ĠSim": 3030,
      "Ġmotiv": 3031,
      "Ġbooks": 3032,
      "Ġnever": 3033,
      "Ġvision": 3034,
      "ĠOr": 3035,
      "Ġopportunity": 3036,
      "isc": 3037,
      "ĠMax": 3038,
      "Ġmechanics": 3039,
      "Ġhappens": 3040,
      "Ġinteg": 3041,
      "Ġinvolve": 3042,
      "Ġsize": 3043,
      "Ġyounger": 3044,
      "apes": 3045,
      "..": 3046,
      "Ġdoesn": 3047,
      "Ġgenre": 3048,
      "Ġfan": 3049,
      "Ġpoll": 3050,
      "Ġactivity": 3051,
      "Ġheavy": 3052,
      "arent": 3053,
      "asons": 3054,
      "Ġnamed": 3055,
      "Ġsmile": 3056,
      "ony": 3057,
      "Ġreleased": 3058,
      "Ġserved": 3059,
      "Ġtight": 3060,
      "Ġdest": 3061,
      "By": 3062,
      "Ġfields": 3063,
      "Ġimmers": 3064,
      "202": 3065,
      "Ġfriendly": 3066,
      "Ġinstru": 3067,
      "Ġstrategy": 3068,
      "Ġrelev": 3069,
      "Ġreward": 3070,
      "kay": 3071,
      "Ġalive": 3072,
      "Ġred": 3073,
      "Ġsaw": 3074,
      "ĠEXPERT": 3075,
      "Ġwonderful": 3076,
      "ĠOver": 3077,
      "----------------": 3078,
      "Ġmethod": 3079,
      "-st": 3080,
      "Ġcontent": 3081,
      "Ġroots": 3082,
      "Ġsecond": 3083,
      "ott": 3084,
      "Ġdreams": 3085,
      "gest": 3086,
      "Ġspeak": 3087,
      "Ġactions": 3088,
      "Ġnumbers": 3089,
      "Ġasked": 3090,
      "ĠDid": 3091,
      "int": 3092,
      "Ġlines": 3093,
      "Ġpaint": 3094,
      "ocal": 3095,
      "Ġracing": 3096,
      "coming": 3097,
      "Ġconversation": 3098,
      "Ġmembers": 3099,
      "Ġnotes": 3100,
      "Ġsummer": 3101,
      "ĠPr": 3102,
      "ution": 3103,
      "Ġcarefully": 3104,
      "Ġprofessional": 3105,
      "Ġanything": 3106,
      "Ġball": 3107,
      "Ġexplain": 3108,
      "ĠBoth": 3109,
      "Ġgalaxies": 3110,
      "Ġcyc": 3111,
      "erous": 3112,
      "Ġincorpor": 3113,
      "oud": 3114,
      "Ġful": 3115,
      "Ġhealthy": 3116,
      "Ġforget": 3117,
      "Ġbreath": 3118,
      "Ġpus": 3119,
      "Ġreplied": 3120,
      "Ġfarmers": 3121,
      "Ġbecomes": 3122,
      "Ġkitchen": 3123,
      "He": 3124,
      "Ġlaw": 3125,
      "Ġfeedback": 3126,
      "ĠBra": 3127,
      "Ġslight": 3128,
      "vest": 3129,
      "Ġdial": 3130,
      "ĠGra": 3131,
      "Ġdetails": 3132,
      "Ġcomedy": 3133,
      "Ġshar": 3134,
      "Ġneighborhood": 3135,
      "ified": 3136,
      "Ġinstead": 3137,
      "Ġsituations": 3138,
      "obal": 3139,
      "Ġloved": 3140,
      "Ġenhances": 3141,
      "Ġones": 3142,
      "Ġpicture": 3143,
      "Ġchanging": 3144,
      "Ġproduce": 3145,
      "Ġdiscussion": 3146,
      "Ġoriginal": 3147,
      "Ġrepresents": 3148,
      "Ġessence": 3149,
      "Ġbehav": 3150,
      "Ġcalcul": 3151,
      "Ġmodel": 3152,
      "inds": 3153,
      "mma": 3154,
      "DI": 3155,
      "going": 3156,
      "ĠUnited": 3157,
      "Ġmorning": 3158,
      "Ġnecessary": 3159,
      "ners": 3160,
      "Ġproblems": 3161,
      "uild": 3162,
      "ae": 3163,
      "Ġreflecting": 3164,
      "Ġahead": 3165,
      "of": 3166,
      "ored": 3167,
      "Ġevolve": 3168,
      "Ġfund": 3169,
      "ĠThrough": 3170,
      "Ġsustainable": 3171,
      "Ġefficient": 3172,
      "Ġawareness": 3173,
      "Ġworth": 3174,
      "Ġbelief": 3175,
      "Ġidentify": 3176,
      "Ġimagine": 3177,
      "Ġinfluences": 3178,
      "idge": 3179,
      "Ġcarry": 3180,
      "000": 3181,
      "Ġdance": 3182,
      "Ġdecision": 3183,
      "Ġsites": 3184,
      "Ġspent": 3185,
      "Ġharm": 3186,
      "Ġlost": 3187,
      "ĠWho": 3188,
      "Ġtack": 3189,
      "Ġfair": 3190,
      "Ġresonates": 3191,
      "Ġadvice": 3192,
      "Ġmar": 3193,
      "uff": 3194,
      "ĠThom": 3195,
      "ster": 3196,
      "Ġhigher": 3197,
      "ils": 3198,
      "Ġimag": 3199,
      "Ġsecure": 3200,
      "Ġrecord": 3201,
      "Ġrestaur": 3202,
      "Ġdelicious": 3203,
      "Ġamount": 3204,
      "uro": 3205,
      "Ġfall": 3206,
      "Ġask": 3207,
      "Ġappear": 3208,
      "iny": 3209,
      "ĠSpe": 3210,
      "Ġexpand": 3211,
      "Ġdam": 3212,
      "Ġaccessible": 3213,
      "Ġstat": 3214,
      "Ġrights": 3215,
      "\"I": 3216,
      "Ġbasic": 3217,
      "Ġdog": 3218,
      "Ġarchitecture": 3219,
      "Ġconsist": 3220,
      "Ġshapes": 3221,
      "Ġindepend": 3222,
      "Ġdoor": 3223,
      "ding": 3224,
      "Ġgrew": 3225,
      "Ġongoing": 3226,
      "Ġreview": 3227,
      "Ġlooks": 3228,
      "Ġwomen": 3229,
      "umb": 3230,
      "Ġdeveloped": 3231,
      "Ġprefer": 3232,
      "Ġcommunication": 3233,
      "ĠTe": 3234,
      "Ġprograms": 3235,
      "Ġexperien": 3236,
      "ley": 3237,
      "Ġpolic": 3238,
      "Ġfram": 3239,
      "Ġdecide": 3240,
      "Ġjoining": 3241,
      "arily": 3242,
      "Ġanaly": 3243,
      "Ġdefinitely": 3244,
      "Ġgraphics": 3245,
      "Ġrice": 3246,
      "ometimes": 3247,
      "Ġscientists": 3248,
      "ĠMia": 3249,
      "Ġep": 3250,
      "),": 3251,
      "Ġstream": 3252,
      "icial": 3253,
      "llent": 3254,
      "Ġsuccessful": 3255,
      "Ġrhythm": 3256,
      "Ġuniverse": 3257,
      "Ġann": 3258,
      "Ġintense": 3259,
      "Ġbenefits": 3260,
      "Ġword": 3261,
      "Ġsurpr": 3262,
      "Ġmoist": 3263,
      "Ġshowcase": 3264,
      "With": 3265,
      "ulations": 3266,
      "ĠWorld": 3267,
      "Ġabs": 3268,
      "Ġeffort": 3269,
      "###": 3270,
      "Ġcompos": 3271,
      "Ġaimed": 3272,
      "Ġseems": 3273,
      "Ġcomfortable": 3274,
      "Ġself": 3275,
      "Ġcaptiv": 3276,
      "Ġcuis": 3277,
      "Ġgained": 3278,
      "Ġrewarding": 3279,
      "Ġpossible": 3280,
      "Ġcontributed": 3281,
      "wood": 3282,
      "apter": 3283,
      "Ġgetting": 3284,
      "Ġinteractions": 3285,
      "ogue": 3286,
      "ĠDef": 3287,
      "Ġmarkets": 3288,
      "Ġrural": 3289,
      "idden": 3290,
      "Ġdescrib": 3291,
      "Ġthreat": 3292,
      "Ġrecognized": 3293,
      "Ġservice": 3294,
      "Ġlibr": 3295,
      "Ġproblem": 3296,
      "ays": 3297,
      "Ġsource": 3298,
      "Ġtrend": 3299,
      "Ġcore": 3300,
      "Ġmeas": 3301,
      "Ġletter": 3302,
      "ĠStart": 3303,
      "Ġarg": 3304,
      "DIR": 3305,
      "Ġenjoyable": 3306,
      "Ġhandle": 3307,
      "uel": 3308,
      "Ġdin": 3309,
      "Ġopp": 3310,
      "ĠWar": 3311,
      "ration": 3312,
      "ECTOR": 3313,
      "Ġalign": 3314,
      "Ġconservation": 3315,
      "mark": 3316,
      "Ġlonger": 3317,
      "ructure": 3318,
      "DIRECTOR": 3319,
      "anch": 3320,
      "Ġreading": 3321,
      "ĠOh": 3322,
      "Ġdistance": 3323,
      "Ġsimpl": 3324,
      "Ġnet": 3325,
      "Ġstarting": 3326,
      "Ġbringing": 3327,
      "Ġexten": 3328,
      "Ġrecognition": 3329,
      "Ġhost": 3330,
      "Ġunf": 3331,
      "Ġpack": 3332,
      "Ġlandscapes": 3333,
      "Ġinvolves": 3334,
      "Ġpieces": 3335,
      "Ġmoney": 3336,
      "Ġstreet": 3337,
      "Ġstick": 3338,
      "ĠEarth": 3339,
      "Ġtells": 3340,
      "Ġshaping": 3341,
      "Ġconflict": 3342,
      "Ġdiversity": 3343,
      "Ġextra": 3344,
      "Ġreduce": 3345,
      "GC": 3346,
      "Ġstop": 3347,
      "itude": 3348,
      "Ġfront": 3349,
      "overy": 3350,
      "room": 3351,
      "Ġadvoc": 3352,
      "urg": 3353,
      "However": 3354,
      "Ġcollaboration": 3355,
      "Ġrelated": 3356,
      "gar": 3357,
      "Ġdynamic": 3358,
      "Ġshowcases": 3359,
      "Ġcover": 3360,
      "ned": 3361,
      "ĠTr": 3362,
      "ĠPh": 3363,
      "Ġearn": 3364,
      "ĠPre": 3365,
      "Ġoverw": 3366,
      "Ġauthenticity": 3367,
      "ellow": 3368,
      "Ġobser": 3369,
      "odies": 3370,
      "Ġfinding": 3371,
      "Ġpride": 3372,
      "anks": 3373,
      "Ġvot": 3374,
      "Ġprior": 3375,
      "app": 3376,
      "Ġcaptures": 3377,
      "Ġtot": 3378,
      "Ġflowers": 3379,
      "ĠBr": 3380,
      "First": 3381,
      "Ġshif": 3382,
      "Ġcaus": 3383,
      "Ġwrap": 3384,
      "Ġcomput": 3385,
      "Ġchapter": 3386,
      "ĠMr": 3387,
      "Ġriver": 3388,
      "urt": 3389,
      "Ġfant": 3390,
      "Ġinsight": 3391,
      "Ġenem": 3392,
      "Ġwhole": 3393,
      ",ĊĊ": 3394,
      "ĠQu": 3395,
      "ield": 3396,
      "ĠMark": 3397,
      "50": 3398,
      "Ġdeb": 3399,
      "Ġpush": 3400,
      "Ġsection": 3401,
      "urd": 3402,
      "quences": 3403,
      "Ġfoundation": 3404,
      "Ġfootball": 3405,
      "ĠCo": 3406,
      "Ġpainting": 3407,
      "Ġiniti": 3408,
      "itary": 3409,
      "hor": 3410,
      "Ġchecklist": 3411,
      "Ġglobal": 3412,
      "!\"ĊĊ": 3413,
      "pose": 3414,
      "Ġactress": 3415,
      "Ġcasting": 3416,
      "era": 3417,
      "Ġcontem": 3418,
      "ĠMan": 3419,
      "iable": 3420,
      "Ġsand": 3421,
      "Ġsave": 3422,
      "Ġslightly": 3423,
      "Ġcareful": 3424,
      "Ġcrow": 3425,
      "like": 3426,
      "Ġprev": 3427,
      "Ġpromote": 3428,
      "ores": 3429,
      "Ġissue": 3430,
      "Ġoccur": 3431,
      "Ġregions": 3432,
      "Ġhar": 3433,
      "aken": 3434,
      "Ġcountries": 3435,
      "irl": 3436,
      "Ġgiving": 3437,
      "Ġnutr": 3438,
      "Ġhy": 3439,
      "Ġrelevant": 3440,
      "Ġpul": 3441,
      "Ġclim": 3442,
      "ĠId": 3443,
      "laim": 3444,
      "Ġlaugh": 3445,
      "Ġ+": 3446,
      "Ġshowing": 3447,
      "Ġenjoying": 3448,
      "ĠNGC": 3449,
      "Ġoverwhel": 3450,
      "Ġdynamics": 3451,
      "Ġexist": 3452,
      "iers": 3453,
      "ĠSet": 3454,
      "Ġborn": 3455,
      "Ġgas": 3456,
      "ĠSm": 3457,
      "Ġreflection": 3458,
      "Ġsituation": 3459,
      "Ġconvey": 3460,
      "Ġbond": 3461,
      "Ġregard": 3462,
      "Ġmel": 3463,
      "Ġshad": 3464,
      "Ġfocusing": 3465,
      "Ġwar": 3466,
      "ĠSometimes": 3467,
      "Ġsmil": 3468,
      "ĠTom": 3469,
      "Ġalike": 3470,
      "ipping": 3471,
      "ĠEuro": 3472,
      "Ġteach": 3473,
      "ACTOR": 3474,
      "ĠYeah": 3475,
      "Ġinspiration": 3476,
      "izz": 3477,
      "Ġcross": 3478,
      "Ġholds": 3479,
      "Ġprimarily": 3480,
      "Ġsess": 3481,
      "hus": 3482,
      "Ġrein": 3483,
      "Ġtransportation": 3484,
      "Ġtalented": 3485,
      "Ġoutdoor": 3486,
      "Ġpassed": 3487,
      "Ġdocument": 3488,
      "Ġhidden": 3489,
      "Ġpret": 3490,
      "Ġsmell": 3491,
      ")Ċ": 3492,
      "Ġindividual": 3493,
      "Ġbread": 3494,
      "itable": 3495,
      "Ġplot": 3496,
      "Ġeager": 3497,
      "Ġru": 3498,
      "Ġesc": 3499,
      "Ġdone": 3500,
      "-g": 3501,
      "Ġconversations": 3502,
      "reet": 3503,
      "Ġcamp": 3504,
      "Ġdialogue": 3505,
      "Ġstret": 3506,
      "Ġlower": 3507,
      "Ġter": 3508,
      "Ġasp": 3509,
      "Ġfestival": 3510,
      "Ġembrace": 3511,
      "yle": 3512,
      "oad": 3513,
      "Ġtowards": 3514,
      "Ġlocals": 3515,
      "Ġlimited": 3516,
      "onic": 3517,
      "Ġtrust": 3518,
      "Ġartistic": 3519,
      "Ġtourists": 3520,
      "Ġroutine": 3521,
      "Ġinternational": 3522,
      "Ġwait": 3523,
      "Ġevening": 3524,
      "alg": 3525,
      "Ġheld": 3526,
      "Ġbusy": 3527,
      "Ġcloser": 3528,
      "Ġestablished": 3529,
      "Ġsources": 3530,
      "Ġcuisine": 3531,
      "where": 3532,
      "ĠCheck": 3533,
      "ĠStates": 3534,
      "Ġevolution": 3535,
      "Ġbelong": 3536,
      "cip": 3537,
      "Ġmanagement": 3538,
      "Your": 3539,
      "Ġgenres": 3540,
      "Ġstorm": 3541,
      "not": 3542,
      "Ġvoices": 3543,
      "Ġsets": 3544,
      "Ġstruct": 3545,
      "Ġgot": 3546,
      "Ġlively": 3547,
      "Ġmach": 3548,
      "the": 3549,
      "Ġentire": 3550,
      "Ġrecent": 3551,
      "Ġprob": 3552,
      "Ġfoods": 3553,
      "Ġengaged": 3554,
      "Ġpretty": 3555,
      "Ġsubject": 3556,
      "Ġtasks": 3557,
      "Ġech": 3558,
      "ounds": 3559,
      "ength": 3560,
      "Ġmeal": 3561,
      "Ġsupporting": 3562,
      "Ġdrawn": 3563,
      "Ġcontain": 3564,
      "Ġexplores": 3565,
      "Ġensures": 3566,
      "Ġcrafts": 3567,
      "Ġdang": 3568,
      "Ġnational": 3569,
      "Ġbat": 3570,
      "Ġrequires": 3571,
      "irt": 3572,
      "rist": 3573,
      "olutions": 3574,
      "Ġhimself": 3575,
      "porary": 3576,
      "Ġfear": 3577,
      "omin": 3578,
      "Ġcolle": 3579,
      "Ġmatch": 3580,
      "Ġgent": 3581,
      "ĠEurope": 3582,
      "ply": 3583,
      "Ġagricultural": 3584,
      "obs": 3585,
      "Ġprovided": 3586,
      "Ġexerc": 3587,
      "Ġfilmmakers": 3588,
      "Ġsingle": 3589,
      "ĠHave": 3590,
      "Ġmoves": 3591,
      "ison": 3592,
      "Ġteamwork": 3593,
      "Ġmeaningful": 3594,
      "Ġtheme": 3595,
      "Ġforms": 3596,
      "Ġmid": 3597,
      "Ġunex": 3598,
      "-known": 3599,
      "Ġproducts": 3600,
      "izations": 3601,
      "Ġtitle": 3602,
      "Ġhorror": 3603,
      "Ġexh": 3604,
      "ĠAf": 3605,
      "husi": 3606,
      "dule": 3607,
      "Ġenthusi": 3608,
      "rastructure": 3609,
      "Ġrelease": 3610,
      "Ġnoticed": 3611,
      "Ġgoods": 3612,
      "Ġcosts": 3613,
      "Ġtotal": 3614,
      "sw": 3615,
      "ĠThink": 3616,
      "Ġeducational": 3617,
      "ĠName": 3618,
      "Ġtrip": 3619,
      "oved": 3620,
      "198": 3621,
      "Ġgold": 3622,
      "Ġhabitat": 3623,
      "Ġelectric": 3624,
      "uing": 3625,
      "ĠPer": 3626,
      "athe": 3627,
      "Ġclosely": 3628,
      "Ġsociet": 3629,
      "Ġprepared": 3630,
      "Ġparty": 3631,
      "Ġrobot": 3632,
      "eum": 3633,
      "Ġcentral": 3634,
      "Ġrisk": 3635,
      "Ġvisuals": 3636,
      "Ġconsum": 3637,
      "Ġmoisture": 3638,
      "pson": 3639,
      "Ġtowns": 3640,
      "Ġtall": 3641,
      "Ġunexpected": 3642,
      "Ġchart": 3643,
      "Ġaffects": 3644,
      "Ġdedicated": 3645,
      "bb": 3646,
      "But": 3647,
      "Ġstress": 3648,
      "Ġfactors": 3649,
      "roll": 3650,
      "Ġparent": 3651,
      "Ġmention": 3652,
      "Ġmaster": 3653,
      "Ġrely": 3654,
      "board": 3655,
      "Ġonto": 3656,
      "Ġdoing": 3657,
      "Ġscenar": 3658,
      "onents": 3659,
      "ĠOnce": 3660,
      "ostalg": 3661,
      "Ġsmart": 3662,
      "Ġsunlight": 3663,
      "Ġdisplay": 3664,
      "Ġincrease": 3665,
      "Ġdifferences": 3666,
      "Ġversatility": 3667,
      "Ġdrive": 3668,
      "Ġmovements": 3669,
      "ĠCity": 3670,
      "Ġdirector": 3671,
      "Ġbecoming": 3672,
      "Ġtestament": 3673,
      "Ġbound": 3674,
      "rom": 3675,
      "Ġcompany": 3676,
      "Ġfigures": 3677,
      "rien": 3678,
      "Ġlab": 3679,
      "Ġseeing": 3680,
      "Ġrunning": 3681,
      "Ġreaders": 3682,
      "med": 3683,
      "airs": 3684,
      "ront": 3685,
      "Ġrules": 3686,
      "Ġadventures": 3687,
      "arc": 3688,
      "lines": 3689,
      "Ġera": 3690,
      "Ġseek": 3691,
      "ĠTake": 3692,
      "Ġresults": 3693,
      "Ġmilitary": 3694,
      "oyal": 3695,
      "ĠRom": 3696,
      "Ġpractical": 3697,
      "ĠIndia": 3698,
      "Ġsettings": 3699,
      "Ġflat": 3700,
      "Ġhop": 3701,
      "Ġcand": 3702,
      "Ġdrawing": 3703,
      "sts": 3704,
      "Ġinfrastructure": 3705,
      "Ġreinfor": 3706,
      "Ġbust": 3707,
      "ying": 3708,
      "Ġvary": 3709,
      "Ġoffering": 3710,
      "Ġnostalg": 3711,
      "Ġbike": 3712,
      "Ġgentle": 3713,
      "Ġtar": 3714,
      "Ġtap": 3715,
      "ĠĠĠĠĠĠĠĠĠĠĠĠĠĠĠĠ": 3716,
      "Ġeth": 3717,
      "ware": 3718,
      "ĠĊ": 3719,
      "Ġedge": 3720,
      "ler": 3721,
      "icing": 3722,
      "Ġinterested": 3723,
      "put": 3724,
      "On": 3725,
      "Ġhous": 3726,
      "Ġperspectives": 3727,
      "ooting": 3728,
      "Ġcher": 3729,
      "ĠInt": 3730,
      "arted": 3731,
      "Ġviews": 3732,
      "dle": 3733,
      "zy": 3734,
      "istics": 3735,
      "Ġcompelling": 3736,
      "Ġwalked": 3737,
      "Ġcombination": 3738,
      "ĠDoes": 3739,
      "uine": 3740,
      "ĠThompson": 3741,
      "mer": 3742,
      "val": 3743,
      "Ġoil": 3744,
      "Ġobst": 3745,
      "Ġrad": 3746,
      "Ġbatt": 3747,
      "Ġincreasing": 3748,
      "Ġgoes": 3749,
      "uries": 3750,
      "Ġgalaxy": 3751,
      "Ġrelig": 3752,
      "Ġhappen": 3753,
      "Ġincluded": 3754,
      "Ġcelebrated": 3755,
      "ipe": 3756,
      "Ġbehavior": 3757,
      "dly": 3758,
      "ĠMus": 3759,
      "Ġconfidence": 3760,
      "aker": 3761,
      "Ġframe": 3762,
      "iversity": 3763,
      "Ġmoved": 3764,
      "ties": 3765,
      "ork": 3766,
      "Ġdesigns": 3767,
      "16": 3768,
      "Ġthick": 3769,
      "Ġknowing": 3770,
      "Ġrealized": 3771,
      "Ġexcellent": 3772,
      "ĠInstead": 3773,
      "hedule": 3774,
      "Ġrecomm": 3775,
      "Ġepis": 3776,
      "my": 3777,
      "Ġlived": 3778,
      "Ġthough": 3779,
      "duct": 3780,
      "Ġmental": 3781,
      "Ġintric": 3782,
      "me": 3783,
      ").": 3784,
      "Ġfrequ": 3785,
      "Ġactive": 3786,
      "Ġwon": 3787,
      "aint": 3788,
      "Ġfruits": 3789,
      "Ġwall": 3790,
      "Ġbar": 3791,
      "Ġemotion": 3792,
      "cean": 3793,
      "Ġremark": 3794,
      "ĠComp": 3795,
      "Ġwent": 3796,
      "ipment": 3797,
      "Ġop": 3798,
      "Ġsongs": 3799,
      "athered": 3800,
      "ipp": 3801,
      "otal": 3802,
      "Ġansw": 3803,
      "Ġhit": 3804,
      "Ġmusical": 3805,
      "Ġdecided": 3806,
      "Ġorganized": 3807,
      "Ġopened": 3808,
      "ĠĠĊĊ": 3809,
      "Ġvillage": 3810,
      "Ġconstru": 3811,
      "eks": 3812,
      "Ġpanel": 3813,
      "Ġemphasizes": 3814,
      "Ġgrass": 3815,
      "ula": 3816,
      "Ġfinds": 3817,
      "Ġcombat": 3818,
      "Ġfishing": 3819,
      "Ġtransition": 3820,
      "ĠPark": 3821,
      "Ġstructures": 3822,
      "Ġintegr": 3823,
      "erence": 3824,
      "Ġliter": 3825,
      "bon": 3826,
      "Ġjump": 3827,
      "oci": 3828,
      "ĠDon": 3829,
      "Ġmonths": 3830,
      "Ġindeed": 3831,
      "Ġdive": 3832,
      "mp": 3833,
      "isf": 3834,
      "ĠSpeaking": 3835,
      "Ġrecommend": 3836,
      "can": 3837,
      "Ġsite": 3838,
      "Ġjobs": 3839,
      "Ġturning": 3840,
      "hic": 3841,
      "Ġshops": 3842,
      "Ġbeginning": 3843,
      "Ġbirds": 3844,
      "Ġmountains": 3845,
      "Ġconcerns": 3846,
      "une": 3847,
      "Ġpal": 3848,
      "ĠII": 3849,
      "Ġmeals": 3850,
      "Ġcoming": 3851,
      "Ġobserv": 3852,
      "Ġtradition": 3853,
      "Ġfinish": 3854,
      "Ġenhancing": 3855,
      "Ġgenuine": 3856,
      "Ġisn": 3857,
      "Ġwilling": 3858,
      "most": 3859,
      "oom": 3860,
      "ĠGu": 3861,
      "Ġabilities": 3862,
      "ready": 3863,
      "oosing": 3864,
      "Ġadvance": 3865,
      "Ġengagement": 3866,
      "Ġaccount": 3867,
      "ption": 3868,
      "Ġdou": 3869,
      "Ġlies": 3870,
      "Ġdirectly": 3871,
      "ulner": 3872,
      "Ġice": 3873,
      "Ġplatforms": 3874,
      "Ġsolutions": 3875,
      "Ġvisualize": 3876,
      "100": 3877,
      "itor": 3878,
      "Ġpaths": 3879,
      "Ġtaken": 3880,
      "ĠLily": 3881,
      "Ġrisks": 3882,
      "ĠNo": 3883,
      "Ġshel": 3884,
      "ket": 3885,
      "Ġfa": 3886,
      "Ġaftern": 3887,
      "ĠHey": 3888,
      "Ġinse": 3889,
      "Ġnod": 3890,
      "Ġgets": 3891,
      "ancial": 3892,
      "Ġmathem": 3893,
      "Ġcurious": 3894,
      "Ġrespond": 3895,
      "world": 3896,
      "ĠFirst": 3897,
      "Ġobstac": 3898,
      "Ġfour": 3899,
      "Ġlayout": 3900,
      "Ġprou": 3901,
      "Ġvulner": 3902,
      "onse": 3903,
      "ĠSure": 3904,
      "Ġresonated": 3905,
      "onnect": 3906,
      "Ġseemed": 3907,
      "Ġprec": 3908,
      "Ġstead": 3909,
      "Ġath": 3910,
      "Ġoverl": 3911,
      "Ch": 3912,
      "ĠEl": 3913,
      "Ġlibrary": 3914,
      "urch": 3915,
      "Ġencouraged": 3916,
      "Finally": 3917,
      "Ġabove": 3918,
      "Ġharvest": 3919,
      "Ġleads": 3920,
      "rag": 3921,
      "ĠBrit": 3922,
      "haps": 3923,
      "Ġfrustr": 3924,
      "Ġpreserving": 3925,
      "Ġ/": 3926,
      "Ġinspiring": 3927,
      "Ġrecognize": 3928,
      "ĠEmma": 3929,
      "astly": 3930,
      "Ġmis": 3931,
      "Ġsigns": 3932,
      "Ġexperienced": 3933,
      "Ġlayers": 3934,
      "Ġprincip": 3935,
      "________": 3936,
      "Ġincredible": 3937,
      "Ġspots": 3938,
      "Ġthoughtful": 3939,
      "Ġcrew": 3940,
      "Ġalready": 3941,
      "zil": 3942,
      "ĠCal": 3943,
      "Ġraises": 3944,
      "```": 3945,
      "ĠDefinitely": 3946,
      "Ġmist": 3947,
      "Ġcake": 3948,
      "Ġflour": 3949,
      "ana": 3950,
      "Ġexpert": 3951,
      "Ġsustainability": 3952,
      "Ġsimply": 3953,
      "rench": 3954,
      "Ġtexture": 3955,
      "Ġrom": 3956,
      "enc": 3957,
      "Ġpursue": 3958,
      "Ġwalls": 3959,
      "ĠCommun": 3960,
      "Ġmood": 3961,
      "Ġsoon": 3962,
      "Ġimages": 3963,
      "Ġinnovative": 3964,
      "then": 3965,
      "Ġnews": 3966,
      "11": 3967,
      "Ġgrand": 3968,
      "Ġdesire": 3969,
      "Ġclar": 3970,
      "Ġdrink": 3971,
      "ole": 3972,
      ":Ċ": 3973,
      "ĠSouth": 3974,
      "Ġolder": 3975,
      "Ġstudying": 3976,
      "Ġcontemporary": 3977,
      "Ġsurvival": 3978,
      "esc": 3979,
      "osing": 3980,
      "Ġband": 3981,
      "Ġcomplexity": 3982,
      "Ġencouraging": 3983,
      "Ġimmed": 3984,
      "ĠGerm": 3985,
      "Ġcharming": 3986,
      "ĠAfric": 3987,
      "\"?": 3988,
      "ĠBrazil": 3989,
      "Ġrepresentation": 3990,
      "ipes": 3991,
      "Ġdirection": 3992,
      "ĠDr": 3993,
      "sit": 3994,
      "Ġelev": 3995,
      "Ġreality": 3996,
      "Ġexpression": 3997,
      "Ġencounter": 3998,
      "Ġpurpose": 3999,
      "Ġdetermination": 4000,
      "hearted": 4001,
      "Ġblue": 4002,
      "Ġlink": 4003,
      "Ġseeking": 4004,
      "Ġokay": 4005,
      "Ġfocuses": 4006,
      "Ġconcepts": 4007,
      "Ġcha": 4008,
      "asp": 4009,
      "Ġpromin": 4010,
      "Ġcourse": 4011,
      "Ġtom": 4012,
      "opping": 4013,
      "Ġillustrate": 4014,
      "ibilities": 4015,
      "Ġstrengths": 4016,
      "Ġsearch": 4017,
      "17": 4018,
      "Ġvehic": 4019,
      "Ġbi": 4020,
      "Ġtarget": 4021,
      "Ġmemory": 4022,
      "Ġtechnique": 4023,
      "Ġwatched": 4024,
      "Ġflex": 4025,
      "Ġappreciation": 4026,
      "Ġfinancial": 4027,
      "uth": 4028,
      "Ġhesit": 4029,
      "Ġleaving": 4030,
      "Ġlights": 4031,
      "Ġearl": 4032,
      "Ġwaste": 4033,
      "Ġmyth": 4034,
      "Ġteac": 4035,
      "Ġinviting": 4036,
      "ourage": 4037,
      "Ġcard": 4038,
      "Ġspices": 4039,
      "overed": 4040,
      "Ġcompan": 4041,
      "Ġtraffic": 4042,
      "irm": 4043,
      "Ġhu": 4044,
      "Ġut": 4045,
      "Ġassess": 4046,
      "Ġext": 4047,
      "Ġmic": 4048,
      "Ġrivers": 4049,
      "istry": 4050,
      "Ġchemical": 4051,
      "197": 4052,
      "edom": 4053,
      "Ġtitles": 4054,
      "Ġ'": 4055,
      "Ġequipment": 4056,
      "Ġinstall": 4057,
      "Ġfacing": 4058,
      "Ġcoast": 4059,
      "Ġcompetition": 4060,
      "Ġheight": 4061,
      "Ġhomes": 4062,
      "Ġtrick": 4063,
      "Ġknew": 4064,
      "Ġimpressive": 4065,
      "ĠDuring": 4066,
      "Ġsatisf": 4067,
      "ivil": 4068,
      "Ġcit": 4069,
      "illing": 4070,
      "Ġloyal": 4071,
      "ĠUsing": 4072,
      "ploy": 4073,
      "Ġimmediate": 4074,
      "Ġorder": 4075,
      "Ġbackgrounds": 4076,
      "-up": 4077,
      "Ġprobably": 4078,
      "ĠRiver": 4079,
      "Ġgathering": 4080,
      "Ġsurroundings": 4081,
      "eral": 4082,
      "Ġcinema": 4083,
      "Ġgently": 4084,
      "Ġcalm": 4085,
      "ĠConsider": 4086,
      "ĠFl": 4087,
      "Ġwra": 4088,
      "Ġdeg": 4089,
      "Ġbigger": 4090,
      "plement": 4091,
      "---": 4092,
      "Ġfollowed": 4093,
      "Ġcause": 4094,
      "Ġmixed": 4095,
      "Ġideal": 4096,
      "heet": 4097,
      "aple": 4098,
      "pos": 4099,
      "Ġalongside": 4100,
      "Ġdevices": 4101,
      "que": 4102,
      "Ġgathered": 4103,
      "Ġbeloved": 4104,
      "ĠClara": 4105,
      "Ġable": 4106,
      "Ġupd": 4107,
      "Ġcompost": 4108,
      "dd": 4109,
      "wh": 4110,
      "Ġalone": 4111,
      "Ġremarkable": 4112,
      "Ġcommer": 4113,
      "Ġsau": 4114,
      "urate": 4115,
      "Ġpleasure": 4116,
      "Ġbiggest": 4117,
      "Ġtaught": 4118,
      "ĠEmily": 4119,
      "rict": 4120,
      "Ġthing": 4121,
      "ĠRes": 4122,
      "Ġwalking": 4123,
      "Ġinitiatives": 4124,
      "Ġbur": 4125,
      "Ġdevice": 4126,
      "rich": 4127,
      "ĠBal": 4128,
      "Ġfollows": 4129,
      "Ġstrategic": 4130,
      "ĠMon": 4131,
      "Ġuseful": 4132,
      "Ġgeneration": 4133,
      "Ġcred": 4134,
      "Ġstrengthen": 4135,
      "Ġinnovation": 4136,
      "hern": 4137,
      "Ġult": 4138,
      "Ġconnects": 4139,
      "Ġimplications": 4140,
      "urity": 4141,
      "Ġseasons": 4142,
      "Ġsurrounded": 4143,
      "lies": 4144,
      "Ġfab": 4145,
      "unting": 4146,
      "Ġobstacles": 4147,
      "Ġdust": 4148,
      "Ġwindow": 4149,
      "riendly": 4150,
      "Ġestablish": 4151,
      "Ġschedule": 4152,
      "Ġcaf": 4153,
      "ether": 4154,
      "Ġcomedic": 4155,
      "istance": 4156,
      "ird": 4157,
      "Ġleadership": 4158,
      "Ġhonor": 4159,
      "Ġcontributes": 4160,
      "Ġrap": 4161,
      "sive": 4162,
      "ĠTra": 4163,
      "Ġlocations": 4164,
      "Ġresponse": 4165,
      "Ġmeat": 4166,
      "Ġfoster": 4167,
      "Ġtackle": 4168,
      "Ġsle": 4169,
      "aration": 4170,
      "Ġchat": 4171,
      "lish": 4172,
      "Ġ*": 4173,
      "-world": 4174,
      "Ġenemies": 4175,
      "anging": 4176,
      "Ġintricate": 4177,
      "Ġamb": 4178,
      "Ġmill": 4179,
      "Ġfrog": 4180,
      "Ġic": 4181,
      "ĠAlex": 4182,
      "asts": 4183,
      "Ġassoci": 4184,
      "Ġreminded": 4185,
      "oint": 4186,
      "Ġapplications": 4187,
      "ĠVis": 4188,
      "iant": 4189,
      "Ġprompt": 4190,
      "Ġfinally": 4191,
      "Ġten": 4192,
      "ĠRec": 4193,
      "iles": 4194,
      "Ġtimel": 4195,
      "Ġsport": 4196,
      "Ġnumerous": 4197,
      "Ġinvent": 4198,
      "Ġproperly": 4199,
      "tenance": 4200,
      "Ġbeliefs": 4201,
      "Ġlength": 4202,
      "Ġcul": 4203,
      "Thank": 4204,
      "usion": 4205,
      "Ġreveal": 4206,
      "Ġexactly": 4207,
      "Ġcold": 4208,
      "Ġplans": 4209,
      "Ġcompetitive": 4210,
      "Ġlandmark": 4211,
      "Ġafternoon": 4212,
      "Ġboundaries": 4213,
      "Ġdim": 4214,
      "ĠX": 4215,
      "Ġstepped": 4216,
      "track": 4217,
      "Ġmovies": 4218,
      "Ġspend": 4219,
      "Ġteams": 4220,
      "entify": 4221,
      "Ġstronger": 4222,
      "Ġobservations": 4223,
      "Ġreason": 4224,
      "omb": 4225,
      "Ġpull": 4226,
      "Ġsquare": 4227,
      "Ġconsid": 4228,
      "Ġdiv": 4229,
      "iction": 4230,
      "Ġstanding": 4231,
      "Ġexamples": 4232,
      "Ġbattles": 4233,
      "Ġinsect": 4234,
      "ibly": 4235,
      "Ġwildlife": 4236,
      "Ġsupports": 4237,
      "Ġexch": 4238,
      "Ġadditional": 4239,
      "reate": 4240,
      "Ġfully": 4241,
      "ĠFestiv": 4242,
      "ĠAll": 4243,
      "Ġproud": 4244,
      "erences": 4245,
      "Ġbrief": 4246,
      "Ġdecor": 4247,
      "uilding": 4248,
      "ĠRep": 4249,
      "etic": 4250,
      "Ġelement": 4251,
      "Ġlack": 4252,
      "Ġconnecting": 4253,
      "Ġconse": 4254,
      "Ġalb": 4255,
      "Ġhero": 4256,
      "ĠExpl": 4257,
      "ipped": 4258,
      "ads": 4259,
      "Ġclearly": 4260,
      "forward": 4261,
      "Ġwit": 4262,
      "14": 4263,
      "Ġinformed": 4264,
      "Ġminim": 4265,
      "antic": 4266,
      "Ġmen": 4267,
      "sy": 4268,
      "ĠThanks": 4269,
      "Ġcontrols": 4270,
      "Ġattend": 4271,
      "Ġforces": 4272,
      "They": 4273,
      "Ġseeds": 4274,
      "Ġshowcased": 4275,
      "Ġjustice": 4276,
      "Ġpuzzle": 4277,
      "iol": 4278,
      "ĠBefore": 4279,
      "-in": 4280,
      "Ġangle": 4281,
      "book": 4282,
      "Step": 4283,
      "Ġdelight": 4284,
      "Ġdemand": 4285,
      "ume": 4286,
      "Ġfreedom": 4287,
      "Ġdamage": 4288,
      "Ġcorner": 4289,
      "ĠMin": 4290,
      "ĠBen": 4291,
      "Ġprinciples": 4292,
      "Ġbridge": 4293,
      "ception": 4294,
      "Ġbustling": 4295,
      "Ġinterp": 4296,
      "ĠJohn": 4297,
      "Ġbackd": 4298,
      "Ġhelpful": 4299,
      "iency": 4300,
      "Ġtreasure": 4301,
      "ĠApp": 4302,
      "Ġstraightforward": 4303,
      "ĠHol": 4304,
      "Ġlean": 4305,
      "ĠCle": 4306,
      "Ġrapid": 4307,
      "Ġvict": 4308,
      "Ġfloor": 4309,
      "Ġinvolvement": 4310,
      "Ġvari": 4311,
      "Ġcream": 4312,
      "Ġsolar": 4313,
      "dom": 4314,
      "ateful": 4315,
      "Ġarc": 4316,
      "ĠLocal": 4317,
      "Ġneg": 4318,
      "-w": 4319,
      "Ġcontributing": 4320,
      "Ġbalanced": 4321,
      "Ġindependent": 4322,
      "-friendly": 4323,
      "imp": 4324,
      "elcome": 4325,
      "Ġauthor": 4326,
      "Ġtypical": 4327,
      "Ġparents": 4328,
      "felt": 4329,
      "icts": 4330,
      "Ġaccurate": 4331,
      "Ġfilmmaking": 4332,
      "Ġdeliver": 4333,
      "Ġtemperatures": 4334,
      "Ġorganizations": 4335,
      "ĠPol": 4336,
      "Ġconsidering": 4337,
      "Ġcombines": 4338,
      "estead": 4339,
      "Ġobjects": 4340,
      "Ġpeaceful": 4341,
      "Ġpromoting": 4342,
      "ĠNe": 4343,
      "Ġheartfelt": 4344,
      "Ġcamera": 4345,
      "Ġride": 4346,
      "Ġconfident": 4347,
      "Ġfostering": 4348,
      "**ĊĊ": 4349,
      "196": 4350,
      "ha": 4351,
      "Ġweeks": 4352,
      "Imagine": 4353,
      "Ġsocietal": 4354,
      "Ġpriorit": 4355,
      "orage": 4356,
      "Ġpra": 4357,
      "At": 4358,
      "Ġpictures": 4359,
      "Ġimplement": 4360,
      "Ġpollution": 4361,
      "Ġforce": 4362,
      "Ġbonds": 4363,
      "ĠPart": 4364,
      "ender": 4365,
      "Ġaffected": 4366,
      "Ġsou": 4367,
      "Ġsoundtrack": 4368,
      "Ġprominent": 4369,
      "Ġbag": 4370,
      "ompl": 4371,
      "Ġphil": 4372,
      "Ġconsidered": 4373,
      "Ġarms": 4374,
      "ocks": 4375,
      "Ġlifest": 4376,
      "Ġscientific": 4377,
      "Ġecosystems": 4378,
      "Ġlighting": 4379,
      "Ġearlier": 4380,
      "Ġscale": 4381,
      "ĠPlan": 4382,
      "ĠChrist": 4383,
      "Ġmeant": 4384,
      "Ġapartment": 4385,
      "Ġalbum": 4386,
      "Ġtelling": 4387,
      "Ġlaid": 4388,
      "apping": 4389,
      "Ġmultip": 4390,
      "ĠAg": 4391,
      "Ġdeath": 4392,
      "Ġextend": 4393,
      "Ġhighlighting": 4394,
      "Ġspring": 4395,
      "Ġadult": 4396,
      "emb": 4397,
      "Ġgradu": 4398,
      "alf": 4399,
      "Ġcloth": 4400,
      "Ġconduct": 4401,
      "uk": 4402,
      "lt": 4403,
      "Ġescape": 4404,
      "Ġinvites": 4405,
      "Ġbackdrop": 4406,
      "Ġreport": 4407,
      "uit": 4408,
      "Ġegg": 4409,
      "Ġsuitable": 4410,
      "ĠSw": 4411,
      "Ġuns": 4412,
      "Ġchemistry": 4413,
      "Ġinterests": 4414,
      "Ġtrends": 4415,
      "Ġdestination": 4416,
      "alian": 4417,
      "Ġcaptured": 4418,
      "Ġlimit": 4419,
      "Ġyouth": 4420,
      "Ġcycle": 4421,
      "Des": 4422,
      "Ġproducer": 4423,
      "Ġadvant": 4424,
      "Ġsket": 4425,
      "Ġblock": 4426,
      "Ġtopic": 4427,
      "ĠHar": 4428,
      "Ġsav": 4429,
      "Ġfing": 4430,
      "Ġprocesses": 4431,
      "Ġroot": 4432,
      "Ġcovers": 4433,
      "Ġocean": 4434,
      "Ġmass": 4435,
      "Ġformed": 4436,
      "ample": 4437,
      "Ġcris": 4438,
      "roub": 4439,
      "Ġaccompl": 4440,
      "ague": 4441,
      "ĠReg": 4442,
      "gy": 4443,
      "Ġnodded": 4444,
      "Ġwear": 4445,
      "ĠPar": 4446,
      "Ġpopularity": 4447,
      "Ġathlet": 4448,
      "Ġdiving": 4449,
      "Ġprem": 4450,
      "key": 4451,
      "Ġadvanced": 4452,
      "Ġintrig": 4453,
      "yr": 4454,
      "Ġrestaurants": 4455,
      "mates": 4456,
      "oe": 4457,
      "ĠGrand": 4458,
      "Ġrequired": 4459,
      "Ġvisiting": 4460,
      "Ġgrav": 4461,
      "Ġachievements": 4462,
      "Ġmathemat": 4463,
      "Ġplanting": 4464,
      "Ġwoman": 4465,
      "Ġstatus": 4466,
      "Ġflu": 4467,
      "Ġnorm": 4468,
      "Ġimpacts": 4469,
      "Ġanimal": 4470,
      "Ġroads": 4471,
      "Ġreput": 4472,
      "Ġdiag": 4473,
      "Ġimproving": 4474,
      "Ġbott": 4475,
      "iosity": 4476,
      "Ġtax": 4477,
      "anc": 4478,
      "ote": 4479,
      "Ġblack": 4480,
      "Ġmuseum": 4481,
      "Ġsought": 4482,
      "Ġusers": 4483,
      "water": 4484,
      "Ġfail": 4485,
      "Ġoption": 4486,
      "Ġsharp": 4487,
      "Ġbatter": 4488,
      "Ġcommunicate": 4489,
      "Ġthank": 4490,
      "Ġtips": 4491,
      "ocol": 4492,
      "Ġfix": 4493,
      "Ġconsequences": 4494,
      "Ġkept": 4495,
      "Ġscent": 4496,
      "Ġsteady": 4497,
      "Ġmath": 4498,
      "Ġbuy": 4499,
      "Ġalmost": 4500,
      "ĠKing": 4501,
      "Ġemploy": 4502,
      "Ġprofound": 4503,
      "amb": 4504,
      "13": 4505,
      "ĠCont": 4506,
      "Ġneighbors": 4507,
      "Ġsac": 4508,
      "Ġresponsibility": 4509,
      "alk": 4510,
      "Ġfive": 4511,
      "ĠBritish": 4512,
      "uf": 4513,
      "Ġfabric": 4514,
      "erson": 4515,
      "ino": 4516,
      "pa": 4517,
      "Ġpolicies": 4518,
      "ĠĠĠĠĠĠĠ": 4519,
      "Ġpassionate": 4520,
      "ales": 4521,
      "Ġversion": 4522,
      "Ġsea": 4523,
      "Ġhair": 4524,
      "Ġstudies": 4525,
      "Ġglow": 4526,
      "oso": 4527,
      "Ġtransformed": 4528,
      "Ġtalking": 4529,
      "Ġfuel": 4530,
      "Ġslowly": 4531,
      "Ġcannot": 4532,
      "Ġrot": 4533,
      "Ġexercise": 4534,
      "ooper": 4535,
      "Ġwelcome": 4536,
      "Ġincreased": 4537,
      "ĠRoman": 4538,
      "Ġcollege": 4539,
      "term": 4540,
      "Ġcollection": 4541,
      "Ġclaim": 4542,
      "udden": 4543,
      "-sc": 4544,
      "Jake": 4545,
      "lands": 4546,
      "Ġreligious": 4547,
      "Ġcelebrations": 4548,
      "Ġmatters": 4549,
      "Ġscore": 4550,
      "rest": 4551,
      "Ġgreater": 4552,
      "Ġhabitats": 4553,
      "Ġbreed": 4554,
      "|----------------": 4555,
      "atoes": 4556,
      "mon": 4557,
      "Ġintroduced": 4558,
      "ĠWelcome": 4559,
      "Start": 4560,
      "Ġcup": 4561,
      "Ġcaught": 4562,
      "Ġcondition": 4563,
      "ĠCount": 4564,
      "Ġcenturies": 4565,
      "Ġmetal": 4566,
      "li": 4567,
      "Ġcolon": 4568,
      "Ġ`": 4569,
      "ĠCar": 4570,
      "Ġhiking": 4571,
      "house": 4572,
      "ĠAustr": 4573,
      "Ġbenefit": 4574,
      "Ġmoral": 4575,
      "Ġindustries": 4576,
      "Ġsides": 4577,
      "-dr": 4578,
      "Ġdepending": 4579,
      "rees": 4580,
      "rain": 4581,
      "Ġreached": 4582,
      "lying": 4583,
      "Ġtiny": 4584,
      "amil": 4585,
      "Ġboard": 4586,
      "atur": 4587,
      "Ġdeveloping": 4588,
      "Ġmanaging": 4589,
      "Ġrealize": 4590,
      "Ġdescribe": 4591,
      "ĠIndian": 4592,
      "ĠFarm": 4593,
      "Ġmir": 4594,
      "rupt": 4595,
      "Dear": 4596,
      "ording": 4597,
      "alu": 4598,
      "Ġanalyze": 4599,
      "ogether": 4600,
      "Ġstable": 4601,
      "afety": 4602,
      "asy": 4603,
      "ĠChoose": 4604,
      "Ġfaster": 4605,
      "Ġstretch": 4606,
      "Ġdetailed": 4607,
      "Ġefficiency": 4608,
      "Ġrust": 4609,
      "ixt": 4610,
      "Ġhomestead": 4611,
      "Ġsus": 4612,
      "arsh": 4613,
      "rong": 4614,
      "Ġshares": 4615,
      "-life": 4616,
      "Ġdramatic": 4617,
      "Ġreflected": 4618,
      "Ġcas": 4619,
      "estry": 4620,
      "Ġthrilling": 4621,
      "Ġbattle": 4622,
      "Ġmagic": 4623,
      "ĠUp": 4624,
      "Ġcustomers": 4625,
      "Ġgrateful": 4626,
      "Ġlots": 4627,
      "Ġpredict": 4628,
      "-e": 4629,
      "Ġanal": 4630,
      "Ġweekend": 4631,
      "Ġultimately": 4632,
      "ĠFans": 4633,
      "ĠIdentify": 4634,
      "bre": 4635,
      "Ġworksh": 4636,
      "Ġmatches": 4637,
      "Ġrate": 4638,
      "Ġinterview": 4639,
      "Ġdiet": 4640,
      "Ġartic": 4641,
      "Ġevidence": 4642,
      "ira": 4643,
      "Ġcuriosity": 4644,
      "sych": 4645,
      "Ġchick": 4646,
      "Ġdiscovered": 4647,
      "Ġcode": 4648,
      "Ġformation": 4649,
      "Ġmember": 4650,
      "embered": 4651,
      "Ġassociated": 4652,
      "Ġunderst": 4653,
      "Ġrecyc": 4654,
      "ifically": 4655,
      "Ġwaiting": 4656,
      "Ġcell": 4657,
      "erie": 4658,
      "ification": 4659,
      "Ġtiming": 4660,
      "Ġwhite": 4661,
      "Ġdirected": 4662,
      "sh": 4663,
      "Ġago": 4664,
      "-term": 4665,
      "Ġfantastic": 4666,
      "Ġleast": 4667,
      "ames": 4668,
      "Ġevolved": 4669,
      "Ġpizz": 4670,
      "emic": 4671,
      "quality": 4672,
      "Ġprimary": 4673,
      "nal": 4674,
      "Ġtopics": 4675,
      "Ġmaintenance": 4676,
      "flow": 4677,
      "Ġcomputer": 4678,
      "Ġaspiring": 4679,
      "Ġdetect": 4680,
      "Ġremembered": 4681,
      "ĠAb": 4682,
      "ĠJen": 4683,
      "ĠGe": 4684,
      "Ġsparked": 4685,
      "Ġcomponents": 4686,
      "25": 4687,
      "Ġbegins": 4688,
      "ĠEd": 4689,
      "Ġguid": 4690,
      "Ġplanet": 4691,
      "oreover": 4692,
      "Ġoverlook": 4693,
      "Ġbed": 4694,
      "ĠGr": 4695,
      "Ġhighlighted": 4696,
      "Ġstudent": 4697,
      "Ġpiv": 4698,
      "Ġappreciated": 4699,
      "-l": 4700,
      "hold": 4701,
      "ĠWill": 4702,
      "Ġattractions": 4703,
      "Ġcelebration": 4704,
      "Ġpolitics": 4705,
      "Ġcozy": 4706,
      "ups": 4707,
      "Ġproperties": 4708,
      "Ġbow": 4709,
      "Ġconflicts": 4710,
      "Ġcheese": 4711,
      "off": 4712,
      "ĠAct": 4713,
      "Ġhub": 4714,
      "ĠEnglish": 4715,
      "ĠChina": 4716,
      "Ġtape": 4717,
      "Ġsmiled": 4718,
      "Ġwaves": 4719,
      "ĠWow": 4720,
      "Ġfits": 4721,
      "ĠFe": 4722,
      "Ġtold": 4723,
      "Ġinches": 4724,
      "-re": 4725,
      "enses": 4726,
      "atitude": 4727,
      "Ġdiscussing": 4728,
      "Ġtapestry": 4729,
      "eflect": 4730,
      "Ġfaith": 4731,
      "Ġdough": 4732,
      "Ġoverwhelming": 4733,
      "Ġsentence": 4734,
      "Ġgovernance": 4735,
      "hero": 4736,
      "Ġbrand": 4737,
      "Ġearth": 4738,
      "Ġcenters": 4739,
      "Ġraise": 4740,
      "Ġturns": 4741,
      "Ġlighter": 4742,
      "eria": 4743,
      "Ġwave": 4744,
      "Ġcitiz": 4745,
      "ĠLuc": 4746,
      "Ġclimb": 4747,
      "ma": 4748,
      "Ġgear": 4749,
      "ĠAc": 4750,
      "Ġfindings": 4751,
      "olds": 4752,
      "Ġfert": 4753,
      "Ġreputation": 4754,
      "Ġexpected": 4755,
      "Ġformat": 4756,
      "Ġaccept": 4757,
      "Ġpattern": 4758,
      "Ġexhib": 4759,
      "-paced": 4760,
      "Ġsubst": 4761,
      "Ġgatherings": 4762,
      "Ġswim": 4763,
      "Ġrecipes": 4764,
      "Ġabsor": 4765,
      "Ġportrayal": 4766,
      "Ġweak": 4767,
      "Ġevident": 4768,
      "Ġgolden": 4769,
      "Ġraised": 4770,
      "atching": 4771,
      "Ġculinary": 4772,
      "odes": 4773,
      "illed": 4774,
      "Despite": 4775,
      "Ġspr": 4776,
      "Ġletters": 4777,
      "Ġantic": 4778,
      "Ġwinter": 4779,
      "Ġapproaches": 4780,
      "Ġguests": 4781,
      "Ġstorage": 4782,
      "ĠThen": 4783,
      "osen": 4784,
      "ĠStud": 4785,
      "Ġtwist": 4786,
      "Ġpriv": 4787,
      "Ġrush": 4788,
      "ena": 4789,
      "Ġpacing": 4790,
      "Ġexplored": 4791,
      "Ġshowed": 4792,
      "ĠEns": 4793,
      "Ġprevious": 4794,
      "Ġanticip": 4795,
      "Ġspl": 4796,
      "Ġpushing": 4797,
      "ĠWater": 4798,
      "-pro": 4799,
      "Ġglass": 4800,
      "ls": 4801,
      "Ġovers": 4802,
      "Ġmeeting": 4803,
      "Ġwelcoming": 4804,
      "Ġstability": 4805,
      "ured": 4806,
      "ĠRuss": 4807,
      "Ġwhis": 4808,
      "ifying": 4809,
      "Ġadjustments": 4810,
      "laimed": 4811,
      "Ġrace": 4812,
      "ams": 4813,
      "Ġcleaning": 4814,
      "ox": 4815,
      "Ġcarbon": 4816,
      "Ġver": 4817,
      "egin": 4818,
      "Ġsugar": 4819,
      "Ġtask": 4820,
      "Ġgirl": 4821,
      "ologies": 4822,
      "Ġx": 4823,
      "Ġhuge": 4824,
      "Ġsold": 4825,
      "Ġawards": 4826,
      "Ġdeal": 4827,
      "Ġastr": 4828,
      "Before": 4829,
      "Ġworry": 4830,
      "ools": 4831,
      "Ġnetwork": 4832,
      "Ġportrayed": 4833,
      "Ġsymbols": 4834,
      "ĠMaya": 4835,
      "Ġroutes": 4836,
      "Ġsad": 4837,
      "Ġimproved": 4838,
      "While": 4839,
      "Ġrule": 4840,
      "Ġstarts": 4841,
      "AN": 4842,
      "Ġrenew": 4843,
      "Ġtun": 4844,
      "Ġcompare": 4845,
      "Ġevalu": 4846,
      "Through": 4847,
      "Ġwet": 4848,
      "Ġsep": 4849,
      "Ġshout": 4850,
      "Ġproducing": 4851,
      "Ġsolution": 4852,
      "Ġswitch": 4853,
      "ensity": 4854,
      "Ġutil": 4855,
      "Ġreceive": 4856,
      "Ġillustrates": 4857,
      "Ġsleep": 4858,
      "-driven": 4859,
      "Ġconfront": 4860,
      "itors": 4861,
      "ulate": 4862,
      "Ġhappy": 4863,
      "Ġnoise": 4864,
      "Ġsafely": 4865,
      "Ġlisteners": 4866,
      "hips": 4867,
      "ĠSan": 4868,
      "Ġapproached": 4869,
      "ĠFrench": 4870,
      "Ġappeared": 4871,
      "zing": 4872,
      "ĠGl": 4873,
      "Ġload": 4874,
      "ĠAlways": 4875,
      "Ġcivil": 4876,
      "ĠWhere": 4877,
      "aign": 4878,
      "rowing": 4879,
      "Ġenrich": 4880,
      "ĠNorth": 4881,
      "Ġmessages": 4882,
      "olving": 4883,
      "Ġlose": 4884,
      "Al": 4885,
      "Look": 4886,
      "Ġcountless": 4887,
      "Ġvolcan": 4888,
      "Ġroute": 4889,
      "Ġcooper": 4890,
      "Ġimage": 4891,
      "[Your": 4892,
      "ĠBar": 4893,
      "Ġsnacks": 4894,
      "archers": 4895,
      "Ġvisually": 4896,
      "Ġlifestyle": 4897,
      "Ġpsych": 4898,
      "cast": 4899,
      "Ġwriter": 4900,
      "Ġviol": 4901,
      "Ġbelonging": 4902,
      "Ġbelieved": 4903,
      "pper": 4904,
      "aked": 4905,
      "ĠEven": 4906,
      "Ġcapturing": 4907,
      "Ġsauce": 4908,
      "Ġcounter": 4909,
      "Ġstandard": 4910,
      "Ġinsects": 4911,
      "Ġcritics": 4912,
      "ĠAng": 4913,
      "verage": 4914,
      "dy": 4915,
      "ĠJapanese": 4916,
      "ĠCommunity": 4917,
      "ĠAlso": 4918,
      "ĠGree": 4919,
      "Ġhearts": 4920,
      "Ġregarding": 4921,
      "Ġfad": 4922,
      "Ġcars": 4923,
      "Ġstone": 4924,
      "tered": 4925,
      "Ġdistribut": 4926,
      "Ġelectr": 4927,
      "ius": 4928,
      "Ġmode": 4929,
      "Ġinstit": 4930,
      "Ġsecurity": 4931,
      "ĠTime": 4932,
      "Ġparticipate": 4933,
      "Ġbasket": 4934,
      "Ġdriving": 4935,
      "Ġgar": 4936,
      "Just": 4937,
      "...": 4938,
      "Ġcommercial": 4939,
      "Ġphone": 4940,
      "Ġfather": 4941,
      "ille": 4942,
      "Ġcompletely": 4943,
      "Ġnon": 4944,
      "Ġphiloso": 4945,
      "Ġboo": 4946,
      "cl": 4947,
      "ltimately": 4948,
      "than": 4949,
      "ords": 4950,
      "Ġlanguages": 4951,
      "Ġlistening": 4952,
      "Ġinterpret": 4953,
      "Ġgrasp": 4954,
      "Ġoccas": 4955,
      "**Ċ": 4956,
      "Ġremove": 4957,
      "Ġevolving": 4958,
      "ufact": 4959,
      "Ġpracticing": 4960,
      "Ġspecifically": 4961,
      "Ġlaws": 4962,
      "aff": 4963,
      "Ġreminding": 4964,
      "duc": 4965,
      "Ġsolve": 4966,
      "ysis": 4967,
      "osition": 4968,
      "Ġworkers": 4969,
      "eter": 4970,
      "Ġdelightful": 4971,
      "Ġcorrectly": 4972,
      "Ġlift": 4973,
      "Ġpizza": 4974,
      "Ġcouple": 4975,
      "Ġbalancing": 4976,
      "Ġkinds": 4977,
      "ims": 4978,
      "onent": 4979,
      "ym": 4980,
      "Ġregularly": 4981,
      "Ġlabor": 4982,
      "Ġtruth": 4983,
      "ĠAmerica": 4984,
      "Ġfence": 4985,
      "Ġcrime": 4986,
      "Ġperfectly": 4987,
      "Ġfranch": 4988,
      "Ġproductions": 4989,
      "Ġexpectations": 4990,
      "Ġrefres": 4991,
      "Ġoffice": 4992,
      "iang": 4993,
      "ĠVal": 4994,
      "Ġobservation": 4995,
      "Ġinitial": 4996,
      "Ġpreparing": 4997,
      "-time": 4998,
      "Ġscript": 4999,
      "Ġir": 5000,
      "Ġevoke": 5001,
      "Ġunderstood": 5002,
      "vo": 5003,
      "ĠStep": 5004,
      "Ġelection": 5005,
      "Ġrelate": 5006,
      "Ġprotecting": 5007,
      "orough": 5008,
      "ĠGen": 5009,
      "Ġtire": 5010,
      "Ġmother": 5011,
      "Ġstreaming": 5012,
      "Ġdro": 5013,
      "Ġwash": 5014,
      "Ġgrown": 5015,
      "Ġant": 5016,
      "Ġpopulations": 5017,
      "ĠFind": 5018,
      "Ġcarr": 5019,
      "Ġlake": 5020,
      "Ġfilming": 5021,
      "nic": 5022,
      "Ġpresents": 5023,
      "ĠMost": 5024,
      "Ġskin": 5025,
      "Ġmini": 5026,
      "che": 5027,
      "Ġmicro": 5028,
      "uments": 5029,
      "lesh": 5030,
      "Ġblending": 5031,
      "rs": 5032,
      "Ġreliable": 5033,
      "iveness": 5034,
      "Ġuser": 5035,
      "Ġconstant": 5036,
      "Ġherself": 5037,
      "Ġdespite": 5038,
      "-h": 5039,
      "Ġsettle": 5040,
      "Ġgenerally": 5041,
      "Ġadmire": 5042,
      "Ġcomplic": 5043,
      "Ġbreaking": 5044,
      "Ġdate": 5045,
      "Ġshine": 5046,
      "Ġrising": 5047,
      "Ġfilling": 5048,
      "Ġlabel": 5049,
      "-to": 5050,
      "more": 5051,
      "Ġune": 5052,
      "Ġcinemat": 5053,
      "That": 5054,
      "Ġpace": 5055,
      "Ġcritically": 5056,
      "Ġwidely": 5057,
      "Ġgiven": 5058,
      "Ġfriendships": 5059,
      "Ġpic": 5060,
      "use": 5061,
      "Ġfol": 5062,
      "Ġinj": 5063,
      "Ġtransl": 5064,
      "yl": 5065,
      "Ġpreservation": 5066,
      "Ġbrown": 5067,
      "ĠPort": 5068,
      "Ġcompar": 5069,
      "Ġwooden": 5070,
      "60": 5071,
      "ensive": 5072,
      "Ġsitting": 5073,
      "Ġnostalgia": 5074,
      "Ġsuperhero": 5075,
      "idity": 5076,
      "comes": 5077,
      "ĠDespite": 5078,
      "Ġprotection": 5079,
      "Ġsetup": 5080,
      "Ġsequ": 5081,
      "Ġsurvive": 5082,
      "Ġclub": 5083,
      "oms": 5084,
      "Ġmanufact": 5085,
      "ober": 5086,
      "Ġchildhood": 5087,
      "care": 5088,
      "Ġaddressing": 5089,
      "-based": 5090,
      "Ġchosen": 5091,
      "Ġchest": 5092,
      "Ġdise": 5093,
      "ĠMod": 5094,
      "erves": 5095,
      "Ġdirectors": 5096,
      "Ġcreatures": 5097,
      "Ġshot": 5098,
      "ĠĠĠĠĠ": 5099,
      "Ġpreferences": 5100,
      "hoods": 5101,
      "Ġcampaign": 5102,
      "Ġconsistent": 5103,
      "eth": 5104,
      "layer": 5105,
      "Ġjournal": 5106,
      "Ġobserve": 5107,
      "Ġpurch": 5108,
      "Ġbeneficial": 5109,
      "Ġnavigating": 5110,
      "ister": 5111,
      "uous": 5112,
      "Ġlosing": 5113,
      "Ġmotion": 5114,
      "onnected": 5115,
      "ato": 5116,
      "Ġpow": 5117,
      "elesc": 5118,
      "Ġshadows": 5119,
      "unt": 5120,
      "Ġwider": 5121,
      "Ġorganic": 5122,
      "Ġpuzzles": 5123,
      "Ġsmoothly": 5124,
      "Ġcater": 5125,
      "Ġhoriz": 5126,
      "Ġmodels": 5127,
      "Ġign": 5128,
      "Ġfellow": 5129,
      "-be": 5130,
      "co": 5131,
      "Ġearned": 5132,
      "Ġeggs": 5133,
      "Ġtea": 5134,
      "Ġperforming": 5135,
      "Ġheavily": 5136,
      "Ġscenario": 5137,
      "Ġfem": 5138,
      "Ġfeatured": 5139,
      "asm": 5140,
      "Ġfruit": 5141,
      "Ġfighting": 5142,
      "ither": 5143,
      "Ġmax": 5144,
      "Ġsell": 5145,
      "ĠTim": 5146,
      "Ġepisode": 5147,
      "ĠArt": 5148,
      "Ġgratitude": 5149,
      "Ġstepping": 5150,
      "ĠAv": 5151,
      "Ġsessions": 5152,
      "Ġcasual": 5153,
      "Ġdistant": 5154,
      "ĠFinally": 5155,
      "oors": 5156,
      "ĠCent": 5157,
      "Ġplayful": 5158,
      "oop": 5159,
      "-y": 5160,
      "Ġofficial": 5161,
      "ceed": 5162,
      "Ġspending": 5163,
      "ails": 5164,
      "May": 5165,
      "ĠCreate": 5166,
      "Ġdetermine": 5167,
      "Ġstates": 5168,
      "Ġtrain": 5169,
      "rial": 5170,
      "ĠSoc": 5171,
      "Ġemphasize": 5172,
      "Ġhalf": 5173,
      "ĠSec": 5174,
      "Ġedges": 5175,
      "lywood": 5176,
      "Ġmagn": 5177,
      "Ġfarmer": 5178,
      "Ġincorporate": 5179,
      "Ġmeasuring": 5180,
      "Ġapplic": 5181,
      "Ġbeat": 5182,
      "Ġmeasures": 5183,
      "Ġblank": 5184,
      "Ġanimated": 5185,
      "fall": 5186,
      "Ġrefreshing": 5187,
      "Cl": 5188,
      "Ġoptim": 5189,
      "rep": 5190,
      "Ġsnow": 5191,
      "Ġconstruction": 5192,
      "ĠHigh": 5193,
      "abilities": 5194,
      "Ġproduced": 5195,
      "Ġbul": 5196,
      "ĠExper": 5197,
      "enty": 5198,
      "Ġwed": 5199,
      "Ġrealistic": 5200,
      "Ġastronom": 5201,
      "erts": 5202,
      "Ġgift": 5203,
      "Ġshop": 5204,
      "oma": 5205,
      "Ġserving": 5206,
      "ĠWrite": 5207,
      "-by": 5208,
      "Ġexpos": 5209,
      "ĠEnsure": 5210,
      "ĠPrep": 5211,
      "aks": 5212,
      "Ġefficiently": 5213,
      "Ġloud": 5214,
      "rors": 5215,
      "ĠTogether": 5216,
      "Ġartwork": 5217,
      "ervous": 5218,
      "Ġhyd": 5219,
      "raft": 5220,
      "ĠSun": 5221,
      "Add": 5222,
      "Ġsimilarities": 5223,
      "ghed": 5224,
      "Ġdegrees": 5225,
      "Ġfeat": 5226,
      "aws": 5227,
      "Ġsusp": 5228,
      "Ġcapital": 5229,
      "Ġphr": 5230,
      "Ġworksheet": 5231,
      "anish": 5232,
      "Ġopin": 5233,
      "fast": 5234,
      "Ġbottom": 5235,
      "Ġcourage": 5236,
      "Ġvent": 5237,
      "Ġappeals": 5238,
      "Ġindustrial": 5239,
      "roublesh": 5240,
      "Ġadvancements": 5241,
      "Ġnutrients": 5242,
      "artment": 5243,
      "Ġcoll": 5244,
      "Ġbes": 5245,
      "Ġnervous": 5246,
      "Ġlaughed": 5247,
      "icy": 5248,
      "arning": 5249,
      "Ġexec": 5250,
      "Ġunp": 5251,
      "Ġenric": 5252,
      "Ġwriters": 5253,
      "40": 5254,
      "Ġteen": 5255,
      "oph": 5256,
      "Ġmaxim": 5257,
      "Ġtechnologies": 5258,
      "Ġaims": 5259,
      "Ġcitizens": 5260,
      "Ġling": 5261,
      "Ġcontroll": 5262,
      "Ġrepe": 5263,
      "ĠBel": 5264,
      "ĠMc": 5265,
      "Ġfine": 5266,
      "Ġrelative": 5267,
      "right": 5268,
      "Ġthreats": 5269,
      "impse": 5270,
      "wards": 5271,
      "Ġdiffer": 5272,
      "umn": 5273,
      "Ġtried": 5274,
      "ĠInterest": 5275,
      "Ġchoosing": 5276,
      "Ġprice": 5277,
      "Ġextends": 5278,
      "Ġraw": 5279,
      "alities": 5280,
      "ĠWas": 5281,
      "Ġiconic": 5282,
      "Ġnation": 5283,
      "Ġbeautifully": 5284,
      "ept": 5285,
      "Ġtrium": 5286,
      "Ġbarn": 5287,
      "Ġautom": 5288,
      "ett": 5289,
      "ikes": 5290,
      "Ġromantic": 5291,
      "Ġliterature": 5292,
      "Ġglimpse": 5293,
      "fra": 5294,
      "Ġmachine": 5295,
      "eping": 5296,
      "Ġord": 5297,
      "Ġdecades": 5298,
      "oll": 5299,
      "Ġanimation": 5300,
      "Ġbad": 5301,
      "unte": 5302,
      "-making": 5303,
      "Ġuncertain": 5304,
      "though": 5305,
      "ĠItalian": 5306,
      "Here": 5307,
      "Ġreactions": 5308,
      "mber": 5309,
      "Ġinh": 5310,
      "Ġpartners": 5311,
      "Ġrat": 5312,
      "lessly": 5313,
      "Ġforests": 5314,
      "Ġvend": 5315,
      "Ġjourneys": 5316,
      "ann": 5317,
      "Ġpivotal": 5318,
      "Ġwritten": 5319,
      "Ġhealthcare": 5320,
      "Ġchaos": 5321,
      "ada": 5322,
      "ĠMed": 5323,
      "Ġvast": 5324,
      "iy": 5325,
      "ĠMor": 5326,
      "Ġrus": 5327,
      "ĠJohns": 5328,
      "CRE": 5329,
      "ended": 5330,
      "umin": 5331,
      "Ġrepresented": 5332,
      "ĠMid": 5333,
      "ĠEduc": 5334,
      "Ġclever": 5335,
      "Ġbrain": 5336,
      "Ġpa": 5337,
      "Ġdinner": 5338,
      "ĠLa": 5339,
      "Ġboy": 5340,
      "empt": 5341,
      "Ġox": 5342,
      "Ġspoke": 5343,
      "Ġlegal": 5344,
      "CREATOR": 5345,
      "Ġappl": 5346,
      "Ġgrows": 5347,
      "ander": 5348,
      "Ġped": 5349,
      "Ġmistakes": 5350,
      "Ġsacr": 5351,
      "Ġrefer": 5352,
      "raw": 5353,
      "ĠFollow": 5354,
      "-on": 5355,
      "Ġtriumph": 5356,
      "ĠLife": 5357,
      "ĠPlace": 5358,
      "esthe": 5359,
      "Ġremained": 5360,
      "Ġmagical": 5361,
      "Ġflood": 5362,
      "ĠTools": 5363,
      "works": 5364,
      "Ġplayground": 5365,
      "Ġfears": 5366,
      "orrow": 5367,
      "Ġsupplies": 5368,
      "Ġinvestment": 5369,
      "Ġpersonality": 5370,
      "Ġclarity": 5371,
      "Ġcandid": 5372,
      "Ġstriking": 5373,
      "Ġathletes": 5374,
      "Ġadvocate": 5375,
      "Ġroof": 5376,
      "Ġplaced": 5377,
      "Ġnames": 5378,
      "ĠAnother": 5379,
      "Ġsepar": 5380,
      "Ġadaptability": 5381,
      "Ġpreparation": 5382,
      "Ġperhaps": 5383,
      "Ġecho": 5384,
      "Ġanalysis": 5385,
      "ĠPract": 5386,
      "ĠĠĠĠĠĠ": 5387,
      "Ġcouch": 5388,
      "Ġcrack": 5389,
      "Ġrefers": 5390,
      "gypt": 5391,
      "stery": 5392,
      "ĠGo": 5393,
      "Ġgreet": 5394,
      "-M": 5395,
      "Ġreb": 5396,
      "Ġincreasingly": 5397,
      "Ġstation": 5398,
      "exic": 5399,
      "Ġsentences": 5400,
      "ression": 5401,
      "Ġbird": 5402,
      "Ġruns": 5403,
      "erve": 5404,
      "Ġhappened": 5405,
      "semb": 5406,
      "ocolate": 5407,
      "ĠSimple": 5408,
      "Ġresource": 5409,
      "Ġlaughing": 5410,
      "Ġstuff": 5411,
      "Ġhills": 5412,
      "Ġshopping": 5413,
      "Ġdining": 5414,
      "Ġtalents": 5415,
      "ĠYork": 5416,
      "Ġlush": 5417,
      "ĠEgypt": 5418,
      "Ġfame": 5419,
      "arian": 5420,
      "Ġpreserve": 5421,
      "Ġimmersive": 5422,
      "iation": 5423,
      "Moreover": 5424,
      "ĠWest": 5425,
      "Ġoutcomes": 5426,
      "Consider": 5427,
      "Ġcoord": 5428,
      "Ġwebs": 5429,
      "Ġholding": 5430,
      "Ġbutter": 5431,
      "ĠGather": 5432,
      "anged": 5433,
      "Ġintroduce": 5434,
      "Ġreducing": 5435,
      "Ġsession": 5436,
      "Ġcouldn": 5437,
      "Ġcoach": 5438,
      "Ġcombined": 5439,
      "opes": 5440,
      "Ġworkshops": 5441,
      "Ġmanaged": 5442,
      "yn": 5443,
      "ĠLooking": 5444,
      "Ġnu": 5445,
      "Ġfirm": 5446,
      "Ġunfold": 5447,
      "Ġcollaborative": 5448,
      "Ġabsorb": 5449,
      "Ġvac": 5450,
      "Ġphilosoph": 5451,
      "ĠMexic": 5452,
      "Ġaesthe": 5453,
      "men": 5454,
      "Ġprioritize": 5455,
      "Ġaltern": 5456,
      "Ġstaying": 5457,
      "ĠMad": 5458,
      "Ġ\\": 5459,
      "Ġwasn": 5460,
      "Ġrestaurant": 5461,
      "Ġfunctions": 5462,
      "Ġfilter": 5463,
      "Ġtesting": 5464,
      "Ġsketch": 5465,
      "Ġpresentation": 5466,
      "Ġclassroom": 5467,
      "Ġcustoms": 5468,
      "yard": 5469,
      "Ġmusicians": 5470,
      "Ġbrew": 5471,
      "utions": 5472,
      "Ġemphasis": 5473,
      "Ġcateg": 5474,
      "Ġcalculate": 5475,
      "Ġbuzz": 5476,
      "Ġquir": 5477,
      "eration": 5478,
      "Ġreminds": 5479,
      "ĠSchool": 5480,
      "bits": 5481,
      "Ġvalid": 5482,
      "Ġrail": 5483,
      "ctor": 5484,
      "-hearted": 5485,
      "ĠPres": 5486,
      "Ġgamers": 5487,
      "Ġcutting": 5488,
      "Ġdarker": 5489,
      "ait": 5490,
      "Ġmusc": 5491,
      "Ġtheore": 5492,
      "set": 5493,
      "ran": 5494,
      "Ġsections": 5495,
      "Ġdevelopments": 5496,
      "cent": 5497,
      "ĠEv": 5498,
      "ĠTy": 5499,
      "ĠMal": 5500,
      "195": 5501,
      "Ġpushed": 5502,
      "Ġstandards": 5503,
      "Ġtact": 5504,
      "Throughout": 5505,
      "ica": 5506,
      "Ġlandmarks": 5507,
      "Ġease": 5508,
      "ĠOther": 5509,
      "Ġisol": 5510,
      "Ġoffered": 5511,
      "Ġinteraction": 5512,
      "Ġangles": 5513,
      "Ġindicate": 5514,
      "Ġplastic": 5515,
      "Ġsight": 5516,
      "ES": 5517,
      "Ġpage": 5518,
      "Ġarm": 5519,
      "Ġsoccer": 5520,
      ";Ċ": 5521,
      "ech": 5522,
      "Ġdiagram": 5523,
      "arer": 5524,
      "Ġwrong": 5525,
      "osm": 5526,
      "Ġspeaking": 5527,
      "Ġgrid": 5528,
      "Ġrefine": 5529,
      "ham": 5530,
      "ĠBud": 5531,
      "Ġkindness": 5532,
      "Ġteacher": 5533,
      "ĠNational": 5534,
      "Ġadvantage": 5535,
      "Ġdraws": 5536,
      "Ġfactor": 5537,
      "ifies": 5538,
      "riting": 5539,
      "Ġtransformation": 5540,
      "Ġanswer": 5541,
      "ĠCor": 5542,
      "ampions": 5543,
      "ri": 5544,
      "Ġfinished": 5545,
      "ctu": 5546,
      "ĠSuper": 5547,
      "Ġfeaturing": 5548,
      "Ġsudden": 5549,
      "Ġmedium": 5550,
      "Ġeru": 5551,
      "Ġcauses": 5552,
      "Ġbeach": 5553,
      "Ġbloom": 5554,
      "igen": 5555,
      "Ġemerged": 5556,
      "Ġdoors": 5557,
      "etry": 5558,
      "Ġreasons": 5559,
      "ĠLeg": 5560,
      "Ġentertaining": 5561,
      "Ġsupportive": 5562,
      "Ġwitness": 5563,
      "Ġbelow": 5564,
      "Ġdrum": 5565,
      "Ġtank": 5566,
      "Ġmedic": 5567,
      "Ġlovely": 5568,
      "Ġincredibly": 5569,
      "Ġinspect": 5570,
      "ĠTest": 5571,
      "Ġbees": 5572,
      "Ġsalt": 5573,
      "Ġinput": 5574,
      "Ġexchange": 5575,
      "time": 5576,
      "Ġbiod": 5577,
      "reating": 5578,
      "gen": 5579,
      "Ġattempt": 5580,
      "Ġpit": 5581,
      "Ġcaptivated": 5582,
      "Ġbarr": 5583,
      "agon": 5584,
      "Ġbuilds": 5585,
      "ĠInteresting": 5586,
      "Ġnovel": 5587,
      "Ġempower": 5588,
      "away": 5589,
      "Ġmultiplayer": 5590,
      "Ġcaut": 5591,
      "Ġhall": 5592,
      "Ġorganization": 5593,
      "Ġmission": 5594,
      "Ġengineering": 5595,
      "Ġtail": 5596,
      "Ġupon": 5597,
      "Ġcharacteristics": 5598,
      "Ġcreation": 5599,
      "ĠDan": 5600,
      "Ġphotos": 5601,
      "ĠDav": 5602,
      "Ġfold": 5603,
      "oving": 5604,
      "Ġdates": 5605,
      "Ġaccomplish": 5606,
      "ari": 5607,
      "Ġfrequently": 5608,
      "everance": 5609,
      "Ġpromise": 5610,
      "Ġfranchise": 5611,
      "Ġbaking": 5612,
      "Ġkne": 5613,
      "Ġprofession": 5614,
      "Ġcrowd": 5615,
      "ĠOut": 5616,
      "Ġbord": 5617,
      "Ġgardens": 5618,
      "Ġappearance": 5619,
      "ris": 5620,
      "icity": 5621,
      "arter": 5622,
      "ĠTem": 5623,
      "ĠTw": 5624,
      "Re": 5625,
      "Ġseconds": 5626,
      "Ġ&": 5627,
      "Ġgroundwork": 5628,
      "action": 5629,
      "Ġharsh": 5630,
      "ĠHist": 5631,
      "iors": 5632,
      "Ġdess": 5633,
      "ĠGame": 5634,
      "reeze": 5635,
      "Ġthorough": 5636,
      "eath": 5637,
      "Ġinstructions": 5638,
      "Ġseat": 5639,
      ":**Ċ": 5640,
      "Ġdepend": 5641,
      "Ġtracks": 5642,
      "Ġwealth": 5643,
      "Ġarrived": 5644,
      "Ġcaptivating": 5645,
      "Ġcompanies": 5646,
      "Ġdiscovery": 5647,
      "Ġcinematography": 5648,
      "Ġvulnerability": 5649,
      "Ġstandout": 5650,
      "Ġmer": 5651,
      "ĠFrance": 5652,
      "Ġleader": 5653,
      "Lastly": 5654,
      "Ġboost": 5655,
      "vert": 5656,
      "Ġbirth": 5657,
      "Ġmere": 5658,
      "idth": 5659,
      "Ġgeneral": 5660,
      "Ġsoftware": 5661,
      "Ġknife": 5662,
      "Ġtemples": 5663,
      "Ġcharacterized": 5664,
      "ĠThroughout": 5665,
      "athy": 5666,
      "Ġaccording": 5667,
      "Ġtelesc": 5668,
      "ĠKh": 5669,
      "Ġvolunte": 5670,
      "Ġwillingness": 5671,
      "Ġelections": 5672,
      "Ġsuggested": 5673,
      "Ġchocolate": 5674,
      "Ġclearer": 5675,
      "ratic": 5676,
      "Ġcelebrating": 5677,
      "Ġshifts": 5678,
      "Ġpredators": 5679,
      "Ġmilk": 5680,
      "ĠBuilding": 5681,
      "Ġinstitutions": 5682,
      "ĠFil": 5683,
      ")ĊĊ": 5684,
      "Ġpraised": 5685,
      "Ġperseverance": 5686,
      "Ġconven": 5687,
      "Ġjud": 5688,
      "Ġshooting": 5689,
      "Ġrevol": 5690,
      "ixture": 5691,
      "Ġcomment": 5692,
      "Ġexpans": 5693,
      "iam": 5694,
      "ishes": 5695,
      "Ġseam": 5696,
      "Ġties": 5697,
      "Ġcompass": 5698,
      "Ġelectricity": 5699,
      "Ġages": 5700,
      "Ġgiant": 5701,
      "Ġmotivations": 5702,
      "Ġseasonal": 5703,
      "Ġfacilities": 5704,
      "Ġanx": 5705,
      "Ġmedical": 5706,
      "Ġshoot": 5707,
      "ĠDay": 5708,
      "Ġhouses": 5709,
      "Ġsupply": 5710,
      "Ġhosp": 5711,
      "Ġfulf": 5712,
      "ij": 5713,
      "Ġstrange": 5714,
      "Ġkick": 5715,
      "Ġmole": 5716,
      "Ġhousing": 5717,
      "Ġmostly": 5718,
      "Ġprices": 5719,
      "Ġeither": 5720,
      "Ġsuccessfully": 5721,
      "Ġsturd": 5722,
      "ĠKnow": 5723,
      "Ġclust": 5724,
      "Ġpeers": 5725,
      "Ġspin": 5726,
      "Ġdefe": 5727,
      "ĠSpanish": 5728,
      "cript": 5729,
      "Ġmountain": 5730,
      "Ġcases": 5731,
      "Ġwish": 5732,
      "ene": 5733,
      "Ġdefine": 5734,
      "Ġsteam": 5735,
      "Ġurg": 5736,
      "Ġholid": 5737,
      "ĠState": 5738,
      "Over": 5739,
      "ĠSmall": 5740,
      "aul": 5741,
      "Ġdouble": 5742,
      "Rem": 5743,
      "Ġresearchers": 5744,
      "Ġcheer": 5745,
      "Ġshown": 5746,
      "Ġgrab": 5747,
      "ouds": 5748,
      "Ġembracing": 5749,
      "Ġknows": 5750,
      "Ġexpressed": 5751,
      "Ġhistoric": 5752,
      "Ġmystery": 5753,
      "Ġshouted": 5754,
      "urs": 5755,
      "ĠPal": 5756,
      "arad": 5757,
      "ission": 5758,
      "Ġmixing": 5759,
      "Ġmouth": 5760,
      "Ġbite": 5761,
      "ĠStreet": 5762,
      "ĠAss": 5763,
      "Ġwants": 5764,
      "rets": 5765,
      "Ġspiritual": 5766,
      "Ġimprovement": 5767,
      "Ġrecognizing": 5768,
      "fraid": 5769,
      "-F": 5770,
      "-the": 5771,
      "Ġacad": 5772,
      "Ġcomplicated": 5773,
      "Ġafraid": 5774,
      "igenous": 5775,
      "Ġwouldn": 5776,
      "Ġyellow": 5777,
      "ama": 5778,
      "ĠGermany": 5779,
      "Ġbreeze": 5780,
      "Ġmastering": 5781,
      "Ġpet": 5782,
      "Ġadop": 5783,
      "ĠMount": 5784,
      "ĠLight": 5785,
      "Ġbelieves": 5786,
      "Ġfewer": 5787,
      "Ġenthusiasm": 5788,
      "Ġprote": 5789,
      "Ġclasses": 5790,
      "Ġowners": 5791,
      "Ġdangerous": 5792,
      "Ġcards": 5793,
      "Ġreturned": 5794,
      "Ġju": 5795,
      "Ġelectron": 5796,
      "Ġfunny": 5797,
      "Ġgrin": 5798,
      "Ġdelve": 5799,
      "Ġfundament": 5800,
      "de": 5801,
      "iling": 5802,
      "Ġbiodiversity": 5803,
      "ĠEuropean": 5804,
      "Ġadapted": 5805,
      "Ġbreakfast": 5806,
      "Ġpanels": 5807,
      "Ġloyalty": 5808,
      "Ġinvestig": 5809,
      "Ġguiding": 5810,
      "Ġpassing": 5811,
      "Ġbreaks": 5812,
      "isms": 5813,
      "Ġsettled": 5814,
      "Ġfort": 5815,
      "Ġmentioned": 5816,
      "Ġshines": 5817,
      "Ġlimits": 5818,
      "ĠRed": 5819,
      "Ġherbs": 5820,
      "reme": 5821,
      "Ġimprovements": 5822,
      "Ġadults": 5823,
      "Ġhonest": 5824,
      "Ġtomatoes": 5825,
      "ĠHollywood": 5826,
      "ĠCom": 5827,
      "Ġpulled": 5828,
      "Ġscenery": 5829,
      "inese": 5830,
      "Ġselecting": 5831,
      "Ġdrop": 5832,
      "ĠMrs": 5833,
      "Ġclassmates": 5834,
      "Ġwise": 5835,
      "Ġfingers": 5836,
      "ĠProject": 5837,
      "Ġflexibility": 5838,
      "Yeah": 5839,
      "roubleshooting": 5840,
      "urance": 5841,
      "Ġking": 5842,
      "Ġsubjects": 5843,
      "Ġcrisp": 5844,
      "Ġstuck": 5845,
      "Ġsturdy": 5846,
      "Ġdistrict": 5847,
      "-ups": 5848,
      "Ġtastes": 5849,
      "Ġsensors": 5850,
      "Ġattracts": 5851,
      "Ġversatile": 5852,
      "Ġstruck": 5853,
      "Ġneat": 5854,
      "Ġmissions": 5855,
      "Ġfrustration": 5856,
      "Ġencount": 5857,
      "Ġtruck": 5858,
      "Ġcomparison": 5859,
      "Ġweb": 5860,
      "Ġproperty": 5861,
      "Ġrecycling": 5862,
      "ĠTV": 5863,
      "Ġgre": 5864,
      "Ġblocks": 5865,
      "Ġchicken": 5866,
      "ĠTrad": 5867,
      "Ġdifferently": 5868,
      "adow": 5869,
      "Ġapplying": 5870,
      "otic": 5871,
      "Ġraced": 5872,
      "Ġsurprise": 5873,
      "Ġafford": 5874,
      "Ġresistance": 5875,
      "ĠBas": 5876,
      "Ġbasketball": 5877,
      "Be": 5878,
      "Ġdistract": 5879,
      "Ġincome": 5880,
      "Ġharder": 5881,
      "Ġcombine": 5882,
      "Ġmyster": 5883,
      "Ġisland": 5884,
      "Ġpatience": 5885,
      "Ġsilence": 5886,
      "Ġopening": 5887,
      "iance": 5888,
      "Ġcrop": 5889,
      "Ġplate": 5890,
      "Ġrocks": 5891,
      "Ex": 5892,
      "Ġpsychological": 5893,
      "Ġminds": 5894,
      "Ġstoryline": 5895,
      "Ġforest": 5896,
      "Ġsuggests": 5897,
      "Ġstores": 5898,
      "fer": 5899,
      "ka": 5900,
      "Ġgrapp": 5901,
      "outhern": 5902,
      "pace": 5903,
      "194": 5904,
      "Ġphysics": 5905,
      "Ġplanned": 5906,
      "ava": 5907,
      "-quality": 5908,
      "Ġneighborhoods": 5909,
      "Ġasking": 5910,
      "Ġinclus": 5911,
      "Ġemphasizing": 5912,
      "Ġinterc": 5913,
      "Ġemergency": 5914,
      "rogen": 5915,
      "Ġchecking": 5916,
      "Ġmonitor": 5917,
      "Ġclouds": 5918,
      "Em": 5919,
      "hi": 5920,
      "Ġscrew": 5921,
      "Ġsample": 5922,
      "Ġbubb": 5923,
      "Ġchurch": 5924,
      "Ġtrib": 5925,
      "Ġfrogs": 5926,
      "Ġcompete": 5927,
      "Ġcareers": 5928,
      "Ġresponsibilities": 5929,
      "Ġtrop": 5930,
      "Ġvehicles": 5931,
      "ĠUniversity": 5932,
      "Ġdeepen": 5933,
      "ĠRegular": 5934,
      "ubs": 5935,
      "Ġsuspense": 5936,
      "Ġvivid": 5937,
      "Ġrevis": 5938,
      "ĠBlack": 5939,
      "cknow": 5940,
      "umes": 5941,
      "Ġpitch": 5942,
      "amm": 5943,
      "Ġdoub": 5944,
      "ĠBoy": 5945,
      "ĠBat": 5946,
      "Ġorganize": 5947,
      "voking": 5948,
      "Ġcooler": 5949,
      "Ġweap": 5950,
      "Ġoperations": 5951,
      "ĠMaple": 5952,
      "Ġdivid": 5953,
      ">Ċ": 5954,
      "Ġattack": 5955,
      "Ġadap": 5956,
      "Ġfosters": 5957,
      "-provoking": 5958,
      "ĠExplain": 5959,
      "Ġwindows": 5960,
      "Ġscenarios": 5961,
      "Ġround": 5962,
      "Ġspeaks": 5963,
      "Hey": 5964,
      "ĠChinese": 5965,
      "gged": 5966,
      "rm": 5967,
      "Ġtale": 5968,
      "Ġquant": 5969,
      "ĠSum": 5970,
      "ĠJack": 5971,
      "Ġclues": 5972,
      "Ġviewing": 5973,
      "Ġapplication": 5974,
      "Ġtrails": 5975,
      "ĠRev": 5976,
      "aved": 5977,
      "ĠNext": 5978,
      "ĠItaly": 5979,
      "ĠSur": 5980,
      "oven": 5981,
      "cil": 5982,
      "itoring": 5983,
      "Ġnarrow": 5984,
      "Ġhappening": 5985,
      "Ġorange": 5986,
      "Ġthous": 5987,
      "```ĊĊ": 5988,
      "Ġmarks": 5989,
      "redict": 5990,
      "ĠProt": 5991,
      "ĠJohnson": 5992,
      "Ġstroll": 5993,
      "Ġfell": 5994,
      "Ġreplace": 5995,
      "Ġhorse": 5996,
      "Ġextensive": 5997,
      "Ġgrip": 5998,
      "Ġsuff": 5999,
      "Ġplenty": 6000,
      "|--------": 6001,
      "Ġunity": 6002,
      "Ġhabits": 6003,
      "Ġscr": 6004,
      "Ġmiddle": 6005,
      "Ġsignal": 6006,
      "itation": 6007,
      "Ġsaying": 6008,
      "reg": 6009,
      "Ġarrange": 6010,
      "ĠAfrican": 6011,
      "load": 6012,
      "ĠVisitors": 6013,
      "Ġcomplement": 6014,
      "tw": 6015,
      "Ġrelief": 6016,
      "Ġtimeline": 6017,
      "Ġarise": 6018,
      "Ġunw": 6019,
      "araderie": 6020,
      "ĠCast": 6021,
      "Ġcamaraderie": 6022,
      "Ġdrew": 6023,
      "ĠDep": 6024,
      "ĠList": 6025,
      "Ġcherish": 6026,
      "Ġbeneath": 6027,
      "ĠMain": 6028,
      "Ġrecre": 6029,
      "Ġuncover": 6030,
      "Ġintroduction": 6031,
      "Ġbattery": 6032,
      ".S": 6033,
      "-S": 6034,
      "ĠAfrica": 6035,
      "Ġgreatly": 6036,
      "ON": 6037,
      "anges": 6038,
      "grad": 6039,
      "ĠParty": 6040,
      "Ġdowns": 6041,
      "Ġaverage": 6042,
      "---ĊĊ": 6043,
      "Ġentry": 6044,
      "ĠClean": 6045,
      "Ġmeters": 6046,
      "Ġenthusiasts": 6047,
      "Ġerupt": 6048,
      "Ġgeography": 6049,
      "Ġsoftly": 6050,
      "-being": 6051,
      "laborate": 6052,
      "Ġchef": 6053,
      "ĠCoach": 6054,
      "Ġdress": 6055,
      "ĠIns": 6056,
      "Ġmixture": 6057,
      "ĠGreen": 6058,
      "Ġpolicy": 6059,
      "Ġbeans": 6060,
      "iture": 6061,
      "Ġgall": 6062,
      "oken": 6063,
      "Ġpests": 6064,
      "Ġorigins": 6065,
      "Ġimpactful": 6066,
      "Ġsort": 6067,
      "Ġdepends": 6068,
      "Ġeating": 6069,
      "while": 6070,
      "Ġelevate": 6071,
      "ĠChar": 6072,
      "rote": 6073,
      "Ġgardening": 6074,
      "Ġnurt": 6075,
      "Ġwedding": 6076,
      "Ġworlds": 6077,
      "Ġholes": 6078,
      "ĠGrandpa": 6079,
      "ux": 6080,
      "ĠFood": 6081,
      "Ġrough": 6082,
      "Ġimpression": 6083,
      "Mia": 6084,
      "Ġsharpen": 6085,
      "]Ċ": 6086,
      "Ġsucceed": 6087,
      "Ġpun": 6088,
      "oves": 6089,
      "Ġbold": 6090,
      "Ġtales": 6091,
      "Ġresponsible": 6092,
      "Ġburn": 6093,
      "ĠTrans": 6094,
      "ĠBorn": 6095,
      "Ġformula": 6096,
      "Ġpleas": 6097,
      "ĠEducation": 6098,
      "inate": 6099,
      "estern": 6100,
      "Ġbank": 6101,
      "Ġtourist": 6102,
      "ĠLucy": 6103,
      "Ġtalked": 6104,
      "ried": 6105,
      "Ġequation": 6106,
      "ĠSte": 6107,
      "Ġhosts": 6108,
      "ĠJu": 6109,
      "olf": 6110,
      "Ġbackyard": 6111,
      "oons": 6112,
      "Ġvehicle": 6113,
      "Ġsurfaces": 6114,
      "Ġcrowded": 6115,
      "Ġexclaimed": 6116,
      "Ġrare": 6117,
      "Ġlesson": 6118,
      "Ġpen": 6119,
      "Ġforg": 6120,
      "othes": 6121,
      "Ġrates": 6122,
      "ĠSal": 6123,
      "Ġembodies": 6124,
      "Ġlunch": 6125,
      "Ġfurn": 6126,
      "ĠUm": 6127,
      "ĠEmp": 6128,
      "esome": 6129,
      "Ġtied": 6130,
      "Ġinterconnected": 6131,
      "isa": 6132,
      "Ġfaded": 6133,
      "Ġyard": 6134,
      "Ġintriguing": 6135,
      "Ġreinforce": 6136,
      "ĠDesign": 6137,
      "aturday": 6138,
      "oil": 6139,
      "Ġdisrupt": 6140,
      "Ġintensity": 6141,
      "Ġcrafted": 6142,
      "500": 6143,
      "ĠMag": 6144,
      "ubl": 6145,
      "Ġtip": 6146,
      "aze": 6147,
      "iber": 6148,
      "ĠSant": 6149,
      "Ġpainted": 6150,
      "ĠSl": 6151,
      "inist": 6152,
      "Ġmob": 6153,
      "Ġfemale": 6154,
      "-play": 6155,
      "Ġtraits": 6156,
      "Ġtricky": 6157,
      "Ġdura": 6158,
      "Ġembody": 6159,
      "Ġcloud": 6160,
      "Ġbeaches": 6161,
      "ken": 6162,
      "Ġdealing": 6163,
      "Ġdepict": 6164,
      "field": 6165,
      "Ġthrow": 6166,
      "Ġpartner": 6167,
      "lers": 6168,
      "Ġsix": 6169,
      "Ġskilled": 6170,
      "ĠWere": 6171,
      "versely": 6172,
      "Ġhumans": 6173,
      "atically": 6174,
      "Ġhappiness": 6175,
      "Ġhung": 6176,
      "Ġimagination": 6177,
      "ĠDiff": 6178,
      "Ġcoat": 6179,
      "Ġalg": 6180,
      "PS": 6181,
      "Ġexperts": 6182,
      "Ġacknow": 6183,
      "Ġoffic": 6184,
      "ĠDec": 6185,
      "Ġelaborate": 6186,
      "Ġindependence": 6187,
      "Ġbowl": 6188,
      "Ġreviews": 6189,
      "tt": 6190,
      "Ġmeasurements": 6191,
      "Ġgro": 6192,
      "ĠAdjust": 6193,
      "Ġtend": 6194,
      "ĠTur": 6195,
      "ials": 6196,
      "Ġinfect": 6197,
      "ilarly": 6198,
      "Ġdelicate": 6199,
      "ĠReflect": 6200,
      "-step": 6201,
      "nesses": 6202,
      "Ġreaching": 6203,
      "utter": 6204,
      "ĠCons": 6205,
      "Ġunpredict": 6206,
      "ounce": 6207,
      "Ġrub": 6208,
      "Ġaroma": 6209,
      "Ġcrafting": 6210,
      "\"O": 6211,
      "Ġzone": 6212,
      "ivery": 6213,
      "ĠSupp": 6214,
      "ĠFestivals": 6215,
      "Ġeventually": 6216,
      "Ġbench": 6217,
      "Ġcomforting": 6218,
      "Ġpressures": 6219,
      "\"D": 6220,
      "Ġsupported": 6221,
      "ilt": 6222,
      "Ġcompleted": 6223,
      "Ġ{": 6224,
      "Ġdomin": 6225,
      "ounced": 6226,
      "Ġmaps": 6227,
      "ĠLake": 6228,
      "Ġaccessibility": 6229,
      "-solving": 6230,
      "Ġreaction": 6231,
      "ĠEast": 6232,
      "Ġappropr": 6233,
      "Ġinhab": 6234,
      "Ġhealthier": 6235,
      "ĠPM": 6236,
      "ago": 6237,
      "ĠFin": 6238,
      "Ġfolk": 6239,
      "ĠSince": 6240,
      "Ġvoc": 6241,
      "Ġcolonial": 6242,
      "Ġupcoming": 6243,
      "ĠUnt": 6244,
      "Ġups": 6245,
      "Ġteaching": 6246,
      "ss": 6247,
      "encies": 6248,
      "Ġoverwhelmed": 6249,
      "Ġsunny": 6250,
      "Ġnostalgic": 6251,
      "Ġbodies": 6252,
      "Ġrelaxed": 6253,
      "Ġfarms": 6254,
      "ael": 6255,
      "Ġsensor": 6256,
      "Ġspeech": 6257,
      "Ġsimplicity": 6258,
      "Ġthin": 6259,
      "afood": 6260,
      "Ġregional": 6261,
      "eling": 6262,
      "pes": 6263,
      "omed": 6264,
      "Ġargument": 6265,
      "Ġlens": 6266,
      "Ġparticles": 6267,
      "\"?ĊĊ": 6268,
      "htaking": 6269,
      "Ġwheel": 6270,
      "Ġdisp": 6271,
      "Remember": 6272,
      "Ġgravity": 6273,
      "ki": 6274,
      "Ġitem": 6275,
      "Ġlegs": 6276,
      "ygen": 6277,
      "Ġbreathtaking": 6278,
      "Ġfacts": 6279,
      "ĠMusic": 6280,
      "da": 6281,
      "ĠHouse": 6282,
      "vere": 6283,
      "Ġdemoc": 6284,
      "mar": 6285,
      "Ġenduring": 6286,
      "Ġupdates": 6287,
      "Ġcultiv": 6288,
      "Ġdead": 6289,
      "ommod": 6290,
      "erent": 6291,
      "Ġdip": 6292,
      "Ġrespected": 6293,
      "Ġcalls": 6294,
      "ĠConnect": 6295,
      "Ġquieter": 6296,
      "Ġfrag": 6297,
      "appy": 6298,
      "Max": 6299,
      "Ġtheory": 6300,
      "ĠGeor": 6301,
      "Ġcoastal": 6302,
      "orses": 6303,
      "Ġconv": 6304,
      "Ġdiscussed": 6305,
      "Ġspect": 6306,
      "elines": 6307,
      "ĠHaving": 6308,
      "Ġfundamental": 6309,
      "Ġadaptations": 6310,
      "ĠPhil": 6311,
      "Ġadjusting": 6312,
      "-se": 6313,
      "Ġpossibilities": 6314,
      "Ġovercome": 6315,
      "Ġsummar": 6316,
      "ani": 6317,
      "Ġdemonstrating": 6318,
      "ĠSpace": 6319,
      "Ġterrit": 6320,
      "Ġapprox": 6321,
      "Ġmachines": 6322,
      "Ġexpanded": 6323,
      "Ġdirt": 6324,
      "Ġvaried": 6325,
      "lam": 6326,
      "place": 6327,
      "Ġcere": 6328,
      "Ġdrag": 6329,
      "ora": 6330,
      "ĠFestival": 6331,
      "Ġcart": 6332,
      "ĠOur": 6333,
      "Ġtends": 6334,
      "Ġsequences": 6335,
      "Both": 6336,
      "Ġintertw": 6337,
      "Ġcompre": 6338,
      "ĠCr": 6339,
      "ED": 6340,
      "Ġcelebrates": 6341,
      "Ġnations": 6342,
      "Ġvine": 6343,
      "mble": 6344,
      "Con": 6345,
      "ĠKore": 6346,
      "Ġindicates": 6347,
      "Ġcatchy": 6348,
      "Ġpresented": 6349,
      "Ġthird": 6350,
      "Ġkil": 6351,
      "Ġur": 6352,
      "force": 6353,
      "Ġexisting": 6354,
      "issions": 6355,
      "Ġaccommod": 6356,
      "ĠPractice": 6357,
      "Ġhandling": 6358,
      "iments": 6359,
      "Ġrichness": 6360,
      "Ġvisible": 6361,
      "ĠLastly": 6362,
      "Ġempathy": 6363,
      "ĠRead": 6364,
      "Ġli": 6365,
      "Ġaudio": 6366,
      "cers": 6367,
      "Ġappropriate": 6368,
      "Ġpair": 6369,
      "Ġembark": 6370,
      "Sh": 6371,
      "ila": 6372,
      "ĠPat": 6373,
      "ĠMet": 6374,
      "Ġinternet": 6375,
      "orthy": 6376,
      "Ġcontact": 6377,
      "Ġseparate": 6378,
      "Ġplacing": 6379,
      "Ġretain": 6380,
      "Ġfurniture": 6381,
      "Ġcattle": 6382,
      "Ġrapidly": 6383,
      "night": 6384,
      "chol": 6385,
      "Ġgradually": 6386,
      "Ġenter": 6387,
      "Ġshifted": 6388,
      "Ġsecrets": 6389,
      "Ġwrest": 6390,
      "ĠUntil": 6391,
      "Ġexcess": 6392,
      "Station": 6393,
      "ping": 6394,
      "Ġrealism": 6395,
      "Ġcompleting": 6396,
      "ĠTechn": 6397,
      "Ġvendors": 6398,
      "24": 6399,
      "Ġminor": 6400,
      "Ġdistinctive": 6401,
      "Ġviewer": 6402,
      "Ġviolence": 6403,
      "Ġresid": 6404,
      "Ġblends": 6405,
      "ribe": 6406,
      "Ġmathematics": 6407,
      "Ġdancing": 6408,
      "ĠMich": 6409,
      "Ġcourt": 6410,
      "Ġinters": 6411,
      "ola": 6412,
      "Ġmenu": 6413,
      "|Ċ": 6414,
      "rab": 6415,
      "Ġeffectiveness": 6416,
      "Ġhide": 6417,
      "Ġmut": 6418,
      "ĠMic": 6419,
      "ĠAnt": 6420,
      "Ġcollective": 6421,
      "race": 6422,
      "193": 6423,
      "Ġglancing": 6424,
      "Ġrealities": 6425,
      "stream": 6426,
      "Ġcommonly": 6427,
      "Ġstatement": 6428,
      "ĠBro": 6429,
      "Ġbeats": 6430,
      "Ġwrote": 6431,
      "Ġsignals": 6432,
      "Ġdecline": 6433,
      "uracy": 6434,
      "Ġnewcom": 6435,
      "ses": 6436,
      "Ġsafer": 6437,
      "Ġrolled": 6438,
      "Ġunders": 6439,
      "plate": 6440,
      "Ġhopes": 6441,
      "Ġamid": 6442,
      "ouncil": 6443,
      "Ġdistances": 6444,
      "Ġincorporating": 6445,
      "ĠEmb": 6446,
      "ero": 6447,
      "-and": 6448,
      "Ġexpenses": 6449,
      "ĠLoc": 6450,
      "ĠMil": 6451,
      "Ġmotivated": 6452,
      "So": 6453,
      "Ġfile": 6454,
      "ĠBre": 6455,
      "Ġtriang": 6456,
      "Ġswing": 6457,
      "alia": 6458,
      "Ġstom": 6459,
      "Ġmarking": 6460,
      "Ġshoes": 6461,
      "ĠPlayStation": 6462,
      "Ġmild": 6463,
      "Ġtriumphs": 6464,
      "ĠDem": 6465,
      "Ġjoined": 6466,
      "ĠBeing": 6467,
      "Ġinternal": 6468,
      "ĠMore": 6469,
      "Ġoutline": 6470,
      "ĠEngaging": 6471,
      "Ġcircle": 6472,
      "Ġbutton": 6473,
      "Ġnoted": 6474,
      "iforn": 6475,
      "ette": 6476,
      "Ġtoys": 6477,
      "Ġquirky": 6478,
      "Ġenjoys": 6479,
      "Ġpin": 6480,
      "Ġtag": 6481,
      "Ġcontinuous": 6482,
      "ĠGerman": 6483,
      "ĠSer": 6484,
      "Ġsnack": 6485,
      "Ġclubs": 6486,
      "Ġvictory": 6487,
      "Ġrevolves": 6488,
      "Ġtracking": 6489,
      "ears": 6490,
      "Ġguidance": 6491,
      "irect": 6492,
      "Ġregulations": 6493,
      "Ġnegative": 6494,
      "lin": 6495,
      "opped": 6496,
      "ĠJan": 6497,
      "Ġseed": 6498,
      "Ġsatisfying": 6499,
      "ĠRese": 6500,
      "Ġdescript": 6501,
      "Ġpatient": 6502,
      "Ġdrain": 6503,
      "ĠKeeping": 6504,
      "Ġmining": 6505,
      "She": 6506,
      "Ġlyr": 6507,
      "Ġprecise": 6508,
      "Ġassist": 6509,
      "Ġreference": 6510,
      "illy": 6511,
      "Ġqualities": 6512,
      "ĠNin": 6513,
      "Ġactively": 6514,
      "Ġimmediately": 6515,
      "Ġric": 6516,
      "Ġvariations": 6517,
      "anger": 6518,
      "Ġdelivery": 6519,
      "Ġplanets": 6520,
      "Understanding": 6521,
      "Ġcosm": 6522,
      "ĠHel": 6523,
      "Ġoccurs": 6524,
      "Ġtheorem": 6525,
      "Ġriding": 6526,
      "Ġrecipe": 6527,
      "Ġuneven": 6528,
      "ules": 6529,
      "Ġrevealing": 6530,
      "ĠCommon": 6531,
      "ĠImp": 6532,
      "Ġcomplements": 6533,
      "Ġliqu": 6534,
      "ifornia": 6535,
      "iods": 6536,
      "Ġsatell": 6537,
      "Ġoxygen": 6538,
      "Ġethical": 6539,
      "-r": 6540,
      "atory": 6541,
      "Ġdemands": 6542,
      "Ġseafood": 6543,
      "Ġstrive": 6544,
      "Ġcritic": 6545,
      "Ġestablishing": 6546,
      "Ġstaff": 6547,
      "ruction": 6548,
      "osion": 6549,
      "Ġmillion": 6550,
      "Ġdrill": 6551,
      "Ġthread": 6552,
      "Ġstir": 6553,
      "Ġelectrical": 6554,
      "Ġstruggling": 6555,
      "Ġinsightful": 6556,
      "Ġine": 6557,
      "Ġfro": 6558,
      "ĠGreek": 6559,
      "Ġintersect": 6560,
      "Ġaired": 6561,
      "Ġoven": 6562,
      "Ġparties": 6563,
      "Ġspicy": 6564,
      "Ġclosing": 6565,
      "From": 6566,
      "Ġunus": 6567,
      "Ġmirror": 6568,
      "Today": 6569,
      "Ġinfluential": 6570,
      "ĠPay": 6571,
      "Ġforming": 6572,
      "Ġmas": 6573,
      "Ġupgrad": 6574,
      "Ġattracting": 6575,
      "Ġfunding": 6576,
      "Ġfantasy": 6577,
      "Ġinspires": 6578,
      "Ġwhose": 6579,
      "Ġglad": 6580,
      "ommy": 6581,
      "igr": 6582,
      "omen": 6583,
      "Ġtropical": 6584,
      "Ġchain": 6585,
      "90": 6586,
      "Ġtur": 6587,
      "ĠLeague": 6588,
      "Ġstructured": 6589,
      "Ġstomach": 6590,
      "ĠPower": 6591,
      "ĠEnjoy": 6592,
      "Ġfalls": 6593,
      "Ġinterf": 6594,
      "ĠChurch": 6595,
      "ĠSaturday": 6596,
      "itar": 6597,
      "Ġcontainer": 6598,
      "ĠCalifornia": 6599,
      "ĠSil": 6600,
      "80": 6601,
      "Ġsched": 6602,
      "lear": 6603,
      "Ġende": 6604,
      "Ġchatter": 6605,
      "Ġinvention": 6606,
      "illa": 6607,
      "ban": 6608,
      "ĠWithout": 6609,
      "Ġfer": 6610,
      "Ġbaseball": 6611,
      "ĠReal": 6612,
      "Ġinstrument": 6613,
      "Ġepisodes": 6614,
      "Ġnative": 6615,
      "Ġcapac": 6616,
      "Ġcherished": 6617,
      "Ġvolume": 6618,
      "Ġtechnical": 6619,
      "Ġgave": 6620,
      "Ġengineers": 6621,
      "Ġinvite": 6622,
      "iter": 6623,
      "Ġrit": 6624,
      "Ġadaptation": 6625,
      "ĠKnowing": 6626,
      "Ġadapting": 6627,
      "Ġperiods": 6628,
      "Ġunderg": 6629,
      "ĠCost": 6630,
      "Ġcomprehen": 6631,
      "Ġediting": 6632,
      "Ġradio": 6633,
      "made": 6634,
      "Ġbrother": 6635,
      "Ġformer": 6636,
      "ternal": 6637,
      "Ġwebsite": 6638,
      "Ġ<": 6639,
      "Ġbrush": 6640,
      "Ġcircum": 6641,
      "Ġacclaim": 6642,
      "Ġlat": 6643,
      "anches": 6644,
      "Ġunfolds": 6645,
      "ĠBalancing": 6646,
      "sc": 6647,
      "Ġmiles": 6648,
      "la": 6649,
      "Ġsuburban": 6650,
      "hest": 6651,
      "ĠJames": 6652,
      "umber": 6653,
      "ĠEngland": 6654,
      "Ġimmerse": 6655,
      "onge": 6656,
      "Ġuniversal": 6657,
      "Ġconstruct": 6658,
      "ala": 6659,
      "Ġwine": 6660,
      "Ġdepartment": 6661,
      "Ġglanced": 6662,
      "Ġshadow": 6663,
      "ĠMarch": 6664,
      "Ġprofessionals": 6665,
      "ĠDavid": 6666,
      "itted": 6667,
      "Ġsend": 6668,
      "endar": 6669,
      "ocking": 6670,
      "ĠWork": 6671,
      "Ġdual": 6672,
      "Maybe": 6673,
      "Ġapps": 6674,
      "Ġdemonstrates": 6675,
      "Ġbreathing": 6676,
      "ograp": 6677,
      "Ġambition": 6678,
      "Ġequal": 6679,
      "ean": 6680,
      "Ġaccurately": 6681,
      "Ġseal": 6682,
      "ĠShow": 6683,
      "Ġparticipation": 6684,
      "Ġforever": 6685,
      "Ġdifficulty": 6686,
      "ĠDifferent": 6687,
      "Ġmainly": 6688,
      "-C": 6689,
      "Ġteachers": 6690,
      "ften": 6691,
      "Ġreader": 6692,
      "Ġgone": 6693,
      "eal": 6694,
      "ographic": 6695,
      "Ġphase": 6696,
      "ĠWal": 6697,
      "Ġflaws": 6698,
      "Ġvalued": 6699,
      "Additionally": 6700,
      "ĠDis": 6701,
      "urther": 6702,
      "orthern": 6703,
      "Ġpink": 6704,
      "Ġmonitoring": 6705,
      "ĠEthan": 6706,
      "ĠAsk": 6707,
      "ĠAddress": 6708,
      "Ġuncertainty": 6709,
      "ĠRob": 6710,
      "Ġhesitate": 6711,
      "box": 6712,
      "Ġparticipated": 6713,
      "nit": 6714,
      "Ġpenc": 6715,
      "eline": 6716,
      "Ġinterviews": 6717,
      "Ġrealm": 6718,
      "ya": 6719,
      "host": 6720,
      "ĠMaria": 6721,
      "Ġoutdoors": 6722,
      "ĠStr": 6723,
      "Ġassemb": 6724,
      "Ġcooperation": 6725,
      "Ġloose": 6726,
      "Ġspiral": 6727,
      "Ġlargest": 6728,
      "Ġreprodu": 6729,
      "gin": 6730,
      "Ġcommitted": 6731,
      "ĠMart": 6732,
      "Ġprotagon": 6733,
      "ieval": 6734,
      "Ġwaters": 6735,
      "Ġexpertise": 6736,
      "uts": 6737,
      "Ġpleasant": 6738,
      "Ġselling": 6739,
      "Ġfond": 6740,
      "Ġsheet": 6741,
      "Ġpulling": 6742,
      "Ġpump": 6743,
      "Ġnothing": 6744,
      "ĠOl": 6745,
      "Ġevaluate": 6746,
      "enn": 6747,
      "Ġscores": 6748,
      "Ġclick": 6749,
      "Ġacademic": 6750,
      "ĠCertain": 6751,
      "Ġmissing": 6752,
      "Ġmeets": 6753,
      "Ġmindful": 6754,
      "olve": 6755,
      "ali": 6756,
      "Ġadmired": 6757,
      "Ġaccuracy": 6758,
      "storm": 6759,
      "Ġrolling": 6760,
      "ĠTreat": 6761,
      "Safety": 6762,
      "Ġtravelers": 6763,
      "ĠSee": 6764,
      "Ġgrounded": 6765,
      "anding": 6766,
      "Ġeverywhere": 6767,
      "vered": 6768,
      "Ġ|ĊĊ": 6769,
      "ĠEmpire": 6770,
      "Ġfly": 6771,
      "agers": 6772,
      "ĠCat": 6773,
      "Ġrushed": 6774,
      "ĠStory": 6775,
      "Ġsupernov": 6776,
      "Ġharmful": 6777,
      "berg": 6778,
      "Ġhorses": 6779,
      "Ġrecall": 6780,
      "Ġvirt": 6781,
      "okes": 6782,
      "ĠCollabor": 6783,
      "Ġdimens": 6784,
      "ĠUltimately": 6785,
      "go": 6786,
      "Ġpowers": 6787,
      "lock": 6788,
      "ĠEst": 6789,
      "Ġinteractive": 6790,
      "Can": 6791,
      "Ġteaches": 6792,
      "Ġphen": 6793,
      "Ġexposure": 6794,
      "Ġdramas": 6795,
      "Ġbill": 6796,
      "Ġgeomet": 6797,
      "\"S": 6798,
      "Ġexamining": 6799,
      "Ġdesk": 6800,
      "Ġshining": 6801,
      "ĠIm": 6802,
      "Ġparticipating": 6803,
      "Ġselection": 6804,
      "Ġcustomer": 6805,
      "used": 6806,
      "Ġargue": 6807,
      "Ġrepresenting": 6808,
      "Ġachieved": 6809,
      "Ġannual": 6810,
      "Ġliked": 6811,
      "Ġdefined": 6812,
      "45": 6813,
      "ĠHmm": 6814,
      "Ġsomewhere": 6815,
      "ĠTry": 6816,
      "Ġshr": 6817,
      "Ġachieving": 6818,
      "through": 6819,
      "Ġhandmade": 6820,
      "Ġbranches": 6821,
      "inations": 6822,
      "ĠCounty": 6823,
      "ees": 6824,
      "Ġdebr": 6825,
      "Ġbath": 6826,
      "Ġcells": 6827,
      "Ġcastle": 6828,
      "Ġrelatively": 6829,
      "Ġflash": 6830,
      "fficient": 6831,
      "Ġhook": 6832,
      "Ġfitness": 6833,
      "front": 6834,
      "Ġinvested": 6835,
      "Ġlovers": 6836,
      "Ġstudied": 6837,
      "Ġhospital": 6838,
      "Ġyield": 6839,
      "Ġkid": 6840,
      "ĠFamil": 6841,
      "ĠEarly": 6842,
      "Ġadmiration": 6843,
      "Ġcurve": 6844,
      ".,": 6845,
      "Ġapproximately": 6846,
      "phone": 6847,
      "Ġyes": 6848,
      "ĠFocus": 6849,
      "Ġechoing": 6850,
      "Ġtherm": 6851,
      "Ġexpansion": 6852,
      "Ġcapabilities": 6853,
      "ville": 6854,
      "amily": 6855,
      "Begin": 6856,
      "Ġgarn": 6857,
      "Ġraising": 6858,
      "agues": 6859,
      "ĠMat": 6860,
      "Ġlighthearted": 6861,
      "osed": 6862,
      "Ġawesome": 6863,
      "Ġthousands": 6864,
      "Ġnorms": 6865,
      "Ġ{Ċ": 6866,
      "Ġgrain": 6867,
      "ĠSch": 6868,
      "Ġintroducing": 6869,
      "ilit": 6870,
      "Ġhumorous": 6871,
      "Ġpond": 6872,
      "Ġban": 6873,
      "Ġhurt": 6874,
      "ellig": 6875,
      "-T": 6876,
      "Ġtro": 6877,
      "ondon": 6878,
      "Ġhousehold": 6879,
      "Ġsadness": 6880,
      "Ġexperiencing": 6881,
      "Ġcop": 6882,
      "Ġoversh": 6883,
      "Ġhumanity": 6884,
      "Ġwoven": 6885,
      "Ġrepet": 6886,
      "Ġclay": 6887,
      "ano": 6888,
      "ĠSk": 6889,
      "Ġdirecting": 6890,
      "Ġregardless": 6891,
      "Ġchann": 6892,
      "Ġorganizing": 6893,
      "urthermore": 6894,
      "Ġevenly": 6895,
      "ĠPict": 6896,
      "Ġlakes": 6897,
      "ĠSafety": 6898,
      "Ġflick": 6899,
      "ighed": 6900,
      "Ġnewcomers": 6901,
      "Ġoverlooked": 6902,
      "Ġbeside": 6903,
      "Ġrepair": 6904,
      "ĠPaul": 6905,
      "Ġletting": 6906,
      "Ġbin": 6907,
      "Ġbreathe": 6908,
      "During": 6909,
      "Ġmilest": 6910,
      "Ġundersc": 6911,
      "Good": 6912,
      "ĠGrowing": 6913,
      "ĠTips": 6914,
      "Ġadminist": 6915,
      "Ġhorizon": 6916,
      "Ġnomin": 6917,
      "Ġdocumentary": 6918,
      "Ġcircumst": 6919,
      "Ġflexible": 6920,
      "Ġspoken": 6921,
      "Ġsales": 6922,
      "ĠRoad": 6923,
      "Ġcautious": 6924,
      "Ġsteep": 6925,
      "Ġcommentary": 6926,
      "Ġstruggled": 6927,
      "Ġmeetings": 6928,
      "ĠAngel": 6929,
      "Ġscenic": 6930,
      "Ġmarine": 6931,
      "ciple": 6932,
      "Ġchuck": 6933,
      "Ġcurrently": 6934,
      "Ġdile": 6935,
      "ĠDi": 6936,
      "ĠRele": 6937,
      "Ġsecret": 6938,
      "backs": 6939,
      "Ġhumidity": 6940,
      "ĠIntern": 6941,
      "Ġaesthetic": 6942,
      "ĠSystem": 6943,
      "Ġflows": 6944,
      "Ġmelody": 6945,
      "Ġpositions": 6946,
      "Ġweaknesses": 6947,
      "Ġhesitated": 6948,
      "Ġartis": 6949,
      "Ġlegend": 6950,
      "Ġaren": 6951,
      "Ġframework": 6952,
      "Ġinstruments": 6953,
      "70": 6954,
      "ĠJenna": 6955,
      "kes": 6956,
      "semble": 6957,
      "192": 6958,
      "Ġrevolution": 6959,
      "ĠYet": 6960,
      "Ġdelves": 6961,
      "Ġconcent": 6962,
      "Ġrecords": 6963,
      "Ġmarr": 6964,
      "Ġbot": 6965,
      "Ġoverview": 6966,
      "Ġhearing": 6967,
      "afe": 6968,
      "raction": 6969,
      "Ġmodes": 6970,
      "Ġextreme": 6971,
      "Ġseg": 6972,
      "Ġboxes": 6973,
      "Ġaqu": 6974,
      "-P": 6975,
      "Ġaside": 6976,
      "ĠRepublic": 6977,
      "Ġshoulder": 6978,
      "Ġmotor": 6979,
      "Ġsmoother": 6980,
      "Ġtests": 6981,
      "craft": 6982,
      "Ġopinions": 6983,
      "Ġswimming": 6984,
      "rug": 6985,
      "Ġhoping": 6986,
      "Ġfiction": 6987,
      "Ġhaz": 6988,
      "Ġempt": 6989,
      "Ġtightly": 6990,
      "Ġrecreational": 6991,
      "Ġpod": 6992,
      "Ġwrapped": 6993,
      "NA": 6994,
      "Ġidentifying": 6995,
      "oles": 6996,
      "rigation": 6997,
      "ĠDevelop": 6998,
      "reed": 6999,
      "ja": 7000,
      "Ġbell": 7001,
      "ĠAp": 7002,
      "Ġenemy": 7003,
      "Ġschol": 7004,
      "iscovery": 7005,
      "Ġcomposition": 7006,
      "ĠChe": 7007,
      "SS": 7008,
      "Ġthriving": 7009,
      "Ġhowever": 7010,
      "Ġrecommendations": 7011,
      "Ġhang": 7012,
      "abul": 7013,
      "Ġanticipation": 7014,
      "Ġgaps": 7015,
      "Ġopens": 7016,
      "lor": 7017,
      "ĠAvoid": 7018,
      "Ġmainstream": 7019,
      "Ġromance": 7020,
      "ĠBo": 7021,
      "Ġpoign": 7022,
      "Ġtang": 7023,
      "ĠSounds": 7024,
      "Ġtasty": 7025,
      "Ġechoed": 7026,
      "Ġinvolving": 7027,
      "ampionship": 7028,
      "Ġcircumstances": 7029,
      "Ġprofile": 7030,
      "Ġrainfall": 7031,
      "Ġdebate": 7032,
      "Ġreform": 7033,
      "Ġbeginner": 7034,
      "Ġdetermined": 7035,
      "ĠpH": 7036,
      "Ġlaunch": 7037,
      "Ġblanket": 7038,
      "Ġacts": 7039,
      "Ġdebris": 7040,
      "Ġminute": 7041,
      "Ġenjoyment": 7042,
      "ĠDet": 7043,
      "Ġdiscovering": 7044,
      "Ġappearances": 7045,
      "Ġricher": 7046,
      "Ġflo": 7047,
      "Ġextended": 7048,
      "Ġreduces": 7049,
      "Ġdanger": 7050,
      "Ġmathematical": 7051,
      "Ġpubl": 7052,
      "tery": 7053,
      "weet": 7054,
      "Ġimpacted": 7055,
      "Ġarrive": 7056,
      "Ġtimeless": 7057,
      "Ġder": 7058,
      "inder": 7059,
      "Ġdrives": 7060,
      "Ġconfusion": 7061,
      "Ġlyrics": 7062,
      "ega": 7063,
      "Ġshy": 7064,
      "Ġactual": 7065,
      "resent": 7066,
      "Ġintegrity": 7067,
      "ĠEveryone": 7068,
      "ĠLondon": 7069,
      "ĠCur": 7070,
      "Ġguard": 7071,
      "Ġstaple": 7072,
      "Ġmissed": 7073,
      "Ġtransfer": 7074,
      "umbled": 7075,
      "iche": 7076,
      "ii": 7077,
      "icip": 7078,
      "estic": 7079,
      "Ġpoignant": 7080,
      "ĠAir": 7081,
      "Ġattacks": 7082,
      "Ġtournam": 7083,
      "inated": 7084,
      "iest": 7085,
      "Ġshoulders": 7086,
      "enes": 7087,
      "azz": 7088,
      "Ġdistribution": 7089,
      "Ġgripping": 7090,
      "gress": 7091,
      "Ġpour": 7092,
      "Ġhole": 7093,
      "Ġweapons": 7094,
      "Ġstalls": 7095,
      "Ġpossibility": 7096,
      "Ġfat": 7097,
      "Ġapplied": 7098,
      "Ġseeks": 7099,
      "Ġchose": 7100,
      "\"A": 7101,
      "ĠAI": 7102,
      "Ġagreement": 7103,
      "Ġgem": 7104,
      "Ġurgency": 7105,
      "Tom": 7106,
      "Ġcovered": 7107,
      "Ġtelescopes": 7108,
      "Ġvulnerable": 7109,
      "inc": 7110,
      "Ġnotebook": 7111,
      "-B": 7112,
      "ĠIsn": 7113,
      "Ġcooked": 7114,
      "Ġemerging": 7115,
      "Ġmythology": 7116,
      "Ġpropos": 7117,
      "Ġstew": 7118,
      "Ġinvesting": 7119,
      "lla": 7120,
      "Ġpacked": 7121,
      "ĠUs": 7122,
      "Ġsandw": 7123,
      "Ġunits": 7124,
      "Ġwhims": 7125,
      "Ġaffecting": 7126,
      "Ġanswers": 7127,
      "Ġthanks": 7128,
      "ĠEnc": 7129,
      "Using": 7130,
      "Ġreveals": 7131,
      "beat": 7132,
      "Ġdisapp": 7133,
      "igration": 7134,
      "Ġsoldiers": 7135,
      "ĠAcc": 7136,
      "ĠCap": 7137,
      "Ġintellig": 7138,
      "alle": 7139,
      "irations": 7140,
      "Ġtheat": 7141,
      "Ġpil": 7142,
      "Ġbehaviors": 7143,
      "Ġovershadow": 7144,
      "Ġcausing": 7145,
      "acts": 7146,
      "pril": 7147,
      "Ġstages": 7148,
      "Ġhopeful": 7149,
      "Ġfunctional": 7150,
      "Ġnorth": 7151,
      "Ġversions": 7152,
      "ashing": 7153,
      "ĠStar": 7154,
      "Ġsights": 7155,
      "Ġgram": 7156,
      "Ġwire": 7157,
      "Ġresist": 7158,
      "Ġended": 7159,
      "-ch": 7160,
      "Ġtables": 7161,
      "Ġincreases": 7162,
      "arming": 7163,
      "cue": 7164,
      "Ġarchitectural": 7165,
      "ĠLearning": 7166,
      "gr": 7167,
      "eptember": 7168,
      "Ġremote": 7169,
      "ĠRevolution": 7170,
      "Ġcaused": 7171,
      "burg": 7172,
      "Ġfertil": 7173,
      "ĠBuild": 7174,
      "Ġclothing": 7175,
      "fol": 7176,
      "obb": 7177,
      "exts": 7178,
      "Take": 7179,
      "Ġreject": 7180,
      "Lily": 7181,
      "Ġstakes": 7182,
      "enue": 7183,
      "Ġrefere": 7184,
      "Ġcry": 7185,
      "ĠWind": 7186,
      "Ġtreaty": 7187,
      "Ġfulfilling": 7188,
      "tical": 7189,
      "Ġvan": 7190,
      "Ġnuts": 7191,
      "Ġdessert": 7192,
      "ĠTurn": 7193,
      "Ġwhimsical": 7194,
      "active": 7195,
      "ĠTour": 7196,
      "Ġprinciple": 7197,
      "Ġaccol": 7198,
      "Ġdebut": 7199,
      "Ġrecovery": 7200,
      "ĠMexico": 7201,
      "Ġpicked": 7202,
      "Ġtravels": 7203,
      "Ġhint": 7204,
      "Ke": 7205,
      "ĠOct": 7206,
      "ĠSimilarly": 7207,
      "Ġfacilit": 7208,
      "Ġembraced": 7209,
      "Ġdemonstrated": 7210,
      "ĠRussia": 7211,
      "ĠLay": 7212,
      "ately": 7213,
      "Ġdevelopers": 7214,
      "lease": 7215,
      "Ġshots": 7216,
      "ĠBye": 7217,
      "umps": 7218,
      "ĠLisa": 7219,
      "Ġanxiety": 7220,
      "ibe": 7221,
      "ĠCult": 7222,
      "igg": 7223,
      "ĠInc": 7224,
      "Ġstack": 7225,
      "ĠWin": 7226,
      "ĠOpen": 7227,
      "Ġnavigation": 7228,
      "Ġinfluencing": 7229,
      "Ġemer": 7230,
      "Ġclock": 7231,
      "Pl": 7232,
      "Ġstring": 7233,
      "Ġcrossing": 7234,
      "Ġrooted": 7235,
      "Ġsurprised": 7236,
      "300": 7237,
      "Ġappears": 7238,
      "Ġfills": 7239,
      "ĠProtect": 7240,
      "Ġbrus": 7241,
      "Ġphrases": 7242,
      "=\"": 7243,
      "Ġcalendar": 7244,
      "Ġguest": 7245,
      "Ġcomprehensive": 7246,
      "ĠOld": 7247,
      "Ġclosed": 7248,
      "Ġpressing": 7249,
      "otes": 7250,
      "Ġcollecting": 7251,
      "Ġdiscoveries": 7252,
      "Ġmerely": 7253,
      "agraph": 7254,
      "Ġdesigning": 7255,
      "Ġpromising": 7256,
      "Ġaid": 7257,
      "Ġperformers": 7258,
      "Ġunusual": 7259,
      "Ġsolving": 7260,
      "antly": 7261,
      "Ġlinked": 7262,
      "Ġenriches": 7263,
      "Ġhaven": 7264,
      "Ġgym": 7265,
      "iller": 7266,
      "Ġdecl": 7267,
      "ĠOrgan": 7268,
      "ini": 7269,
      "izer": 7270,
      "Ġillumin": 7271,
      "Ġecological": 7272,
      "Ġsuit": 7273,
      "ields": 7274,
      "Ġhur": 7275,
      "ĠAlthough": 7276,
      "ittle": 7277,
      "ĠKen": 7278,
      "Ġnit": 7279,
      "ĠQuest": 7280,
      "Ġpasta": 7281,
      "hand": 7282,
      "Ġchaotic": 7283,
      "ĠWould": 7284,
      "Ġdrills": 7285,
      "ĠEmbrace": 7286,
      "Ġpoor": 7287,
      "Ġmedicine": 7288,
      "Ġequally": 7289,
      "ĠQuick": 7290,
      "allow": 7291,
      "ĠJune": 7292,
      "Ġtwists": 7293,
      "Ġcrust": 7294,
      "Ġanalyzing": 7295,
      "ĠSaint": 7296,
      "Ġlined": 7297,
      "abulary": 7298,
      "Ġgravit": 7299,
      "ĠPerhaps": 7300,
      "ĠDa": 7301,
      "Ġstorylines": 7302,
      "Ġmatr": 7303,
      "EL": 7304,
      "Ġauthority": 7305,
      "Ġprogramming": 7306,
      "Ġpicnic": 7307,
      "Ġgeological": 7308,
      "breaking": 7309,
      "Ġloop": 7310,
      "oding": 7311,
      "Ġmuscles": 7312,
      "Ġring": 7313,
      "Ġpoly": 7314,
      "ua": 7315,
      "ube": 7316,
      "Ġdriver": 7317,
      "\"Yeah": 7318,
      "anted": 7319,
      "Ġexpressions": 7320,
      "astern": 7321,
      "Ġequality": 7322,
      "-A": 7323,
      "Ġliv": 7324,
      "oration": 7325,
      "-knit": 7326,
      "cribe": 7327,
      "acies": 7328,
      "ĠBegin": 7329,
      "Ġgap": 7330,
      "Ġexercises": 7331,
      "Ġmelodies": 7332,
      "Ġfiles": 7333,
      "Ġbags": 7334,
      "down": 7335,
      "Ġslower": 7336,
      "Ġarticle": 7337,
      "Ġofficials": 7338,
      "Ġcheerful": 7339,
      "Ġce": 7340,
      "Ġfounded": 7341,
      "Ġcomputers": 7342,
      "Ġvinegar": 7343,
      "ĠChristian": 7344,
      "unk": 7345,
      "Ġoutcome": 7346,
      "Ġske": 7347,
      "Ġbarriers": 7348,
      "Ġdecorations": 7349,
      "Ġunsure": 7350,
      "Ġworkspace": 7351,
      "Ġopponents": 7352,
      "dr": 7353,
      "Ġenhanced": 7354,
      "Ġspreads": 7355,
      "itz": 7356,
      "Ġvote": 7357,
      "vis": 7358,
      "atever": 7359,
      "Ġaccolades": 7360,
      "ĠFinding": 7361,
      "son": 7362,
      "Ġstays": 7363,
      "Ġbact": 7364,
      "Ġguitar": 7365,
      "Ġpad": 7366,
      "Ġirrigation": 7367,
      "Ġcontains": 7368,
      "ĠSuch": 7369,
      "Ġpou": 7370,
      "Ġexpanding": 7371,
      "ĠMa": 7372,
      "Ġsoap": 7373,
      "Ġsavings": 7374,
      "Ġcontexts": 7375,
      "Ġrelies": 7376,
      "Ġsummarize": 7377,
      "Ġpremium": 7378,
      "Ġnormal": 7379,
      "ĠFrank": 7380,
      "Ġsizes": 7381,
      "Ġcounting": 7382,
      "nder": 7383,
      "Ġsparkling": 7384,
      "Ġgaining": 7385,
      "Ġlimitations": 7386,
      "ĠUr": 7387,
      "-a": 7388,
      "Ġnights": 7389,
      "cules": 7390,
      "Ġburst": 7391,
      "Ġusual": 7392,
      "ĠMiddle": 7393,
      "ĠSeptember": 7394,
      "pered": 7395,
      "Ġferment": 7396,
      "ĠChoosing": 7397,
      "rel": 7398,
      "Ġexperimenting": 7399,
      "No": 7400,
      "Ġattracted": 7401,
      "Ġbranch": 7402,
      "ĠMary": 7403,
      "ĠLat": 7404,
      "ĠApply": 7405,
      "ĠVol": 7406,
      "Ġpursuit": 7407,
      "Ġchemicals": 7408,
      "Ġmillions": 7409,
      "Ġbeam": 7410,
      "Ġconsumers": 7411,
      "Ġwinning": 7412,
      "Ġbravery": 7413,
      "Ġcalculations": 7414,
      "-discovery": 7415,
      "Ġtakeaway": 7416,
      "Ġmanufacturing": 7417,
      "Ġproducers": 7418,
      "Ġaward": 7419,
      "Ġbaked": 7420,
      "Ġestablishment": 7421,
      "Ġprompts": 7422,
      "ĠExpert": 7423,
      "ĠMichael": 7424,
      "Ġgarage": 7425,
      "ĠAM": 7426,
      "Ġdiner": 7427,
      "ĠView": 7428,
      "Ġsere": 7429,
      "Ġunpredictable": 7430,
      "Ġremaining": 7431,
      "ĠParis": 7432,
      "weight": 7433,
      "estock": 7434,
      "Ġvert": 7435,
      "Ġsimpler": 7436,
      "Ġaffordable": 7437,
      "Ġrect": 7438,
      "Ġdisease": 7439,
      "ugust": 7440,
      "hesive": 7441,
      "Ġbuddy": 7442,
      "ĠLong": 7443,
      "ĠOff": 7444,
      "Ġaligns": 7445,
      "ĠDisc": 7446,
      "Ġartif": 7447,
      "Ġends": 7448,
      "osaur": 7449,
      "ĠModern": 7450,
      "Ġequations": 7451,
      "resp": 7452,
      "Ġwalks": 7453,
      "anting": 7454,
      "Ġourselves": 7455,
      "Ġrecording": 7456,
      "ĠApril": 7457,
      "Ġemphasized": 7458,
      "elled": 7459,
      "Ġintimate": 7460,
      "Ġsituated": 7461,
      "ĠSpain": 7462,
      "-year": 7463,
      "Ġupl": 7464,
      "\"W": 7465,
      "ometers": 7466,
      "Ġdelivering": 7467,
      "Ġacceptance": 7468,
      "Ġdefense": 7469,
      "My": 7470,
      "ecause": 7471,
      "ĠĠĠĠĠĠĠĠĠĠĠ": 7472,
      "ĠRun": 7473,
      "Ġoperate": 7474,
      "ĠWeek": 7475,
      "ĠĠĠĠĠĠĠĠĠ": 7476,
      "ĠGold": 7477,
      "ĠTeam": 7478,
      "Ġunit": 7479,
      "Ġvoters": 7480,
      "Ġseasoned": 7481,
      "Ġpolished": 7482,
      "Ġformal": 7483,
      "IN": 7484,
      "Ġconcl": 7485,
      "Ġperformed": 7486,
      "Ġaccident": 7487,
      "Ġpeak": 7488,
      "\"Hey": 7489,
      "Ġoutput": 7490,
      "Ġrenewable": 7491,
      "oints": 7492,
      "ockey": 7493,
      "aterials": 7494,
      "Ġlifting": 7495,
      "Ġgau": 7496,
      "lets": 7497,
      "oly": 7498,
      "ĠGard": 7499,
      "Ġcombining": 7500,
      "Ġcarries": 7501,
      "ifting": 7502,
      "Ġpile": 7503,
      "Ġwand": 7504,
      "ĠOctober": 7505,
      "yan": 7506,
      "Ġdefeat": 7507,
      "Ġperformer": 7508,
      "ĠChallen": 7509,
      "ĠPan": 7510,
      "Ġcompassion": 7511,
      "wide": 7512,
      "Ġcredits": 7513,
      "Ġbab": 7514,
      "Ġbalances": 7515,
      "ously": 7516,
      "CO": 7517,
      "ffect": 7518,
      "Ġtuning": 7519,
      "ĠLast": 7520,
      "ita": 7521,
      "oty": 7522,
      "Ġhunt": 7523,
      "Every": 7524,
      "Ġmedieval": 7525,
      "amps": 7526,
      "Ġaccidents": 7527,
      "Ġcollaborated": 7528,
      "Ġbak": 7529,
      "Ġtense": 7530,
      "Ġearthqu": 7531,
      "ĠWorking": 7532,
      "Ġdesired": 7533,
      "Ġcounts": 7534,
      "-L": 7535,
      "Ġsearching": 7536,
      "Since": 7537,
      "-D": 7538,
      "ĠUnlike": 7539,
      "ĠIslam": 7540,
      "Ġbeginners": 7541,
      "Ġforgot": 7542,
      "itting": 7543,
      "Ġconsistently": 7544,
      "rand": 7545,
      "Ġhunting": 7546,
      "Ġsubtle": 7547,
      "ĠMove": 7548,
      "Ġowner": 7549,
      "Ġemail": 7550,
      "wise": 7551,
      "ĠHealth": 7552,
      "Ġspirits": 7553,
      "ga": 7554,
      "Ġnuc": 7555,
      "Ġran": 7556,
      "Ġtouches": 7557,
      "Ġalt": 7558,
      "Ġpencil": 7559,
      "forest": 7560,
      "Ġbirthday": 7561,
      "hion": 7562,
      "anes": 7563,
      "ĠMaplewood": 7564,
      "Ġwatering": 7565,
      "pur": 7566,
      "Ġshelf": 7567,
      "ĠAut": 7568,
      "Ġresulting": 7569,
      "ped": 7570,
      "Ġviewed": 7571,
      "ĠForm": 7572,
      "Ġjack": 7573,
      "Ġcomponent": 7574,
      "Ġsoup": 7575,
      "Ġresponses": 7576,
      "Ġcandidates": 7577,
      "Ġprotein": 7578,
      "Ġchecks": 7579,
      "Ġeight": 7580,
      "ĠExce": 7581,
      "Ġopponent": 7582,
      "Ġfashion": 7583,
      "75": 7584,
      "Ġdiseases": 7585,
      "Ġfeeding": 7586,
      "obe": 7587,
      "Ġfactories": 7588,
      "ĠAustralia": 7589,
      "Ġpets": 7590,
      "Ġinclusive": 7591,
      "Ġbee": 7592,
      "Ġglance": 7593,
      "Ġsyn": 7594,
      "Ġneeding": 7595,
      "Ġstro": 7596,
      "ĠReview": 7597,
      "orith": 7598,
      "ĠDel": 7599,
      "Ġsour": 7600,
      "mmas": 7601,
      "istan": 7602,
      "Ġmisund": 7603,
      "ĠVery": 7604,
      "Ġempty": 7605,
      "Ġfluid": 7606,
      "Ġdraft": 7607,
      "Ġsighed": 7608,
      "Ġprecision": 7609,
      "Ġstunts": 7610,
      "Ġprivate": 7611,
      "ĠProv": 7612,
      "ulated": 7613,
      "ĠPicture": 7614,
      "Ġod": 7615,
      "Ġprevents": 7616,
      "rol": 7617,
      "ĠSocial": 7618,
      "Ġequipped": 7619,
      "ĠNet": 7620,
      "Ġarcs": 7621,
      "Ġcharge": 7622,
      "Ġsacrific": 7623,
      "Ġbare": 7624,
      "Ġtreatment": 7625,
      "ĠBer": 7626,
      "ĠEr": 7627,
      "Ġvoting": 7628,
      "Ġpersonalities": 7629,
      "uary": 7630,
      "Ġprotagonist": 7631,
      "Ġemissions": 7632,
      "vity": 7633,
      "And": 7634,
      "Ġcollaborations": 7635,
      "Ġpersist": 7636,
      "Ġvegetable": 7637,
      "ĠFire": 7638,
      "ĠLee": 7639,
      "never": 7640,
      "________________": 7641,
      "appe": 7642,
      "Ġshade": 7643,
      "Ġrectang": 7644,
      "ĠAim": 7645,
      "emade": 7646,
      "Ġscrews": 7647,
      "ĠLab": 7648,
      "Ġphilosophy": 7649,
      "ĠNotes": 7650,
      "Ġpromotes": 7651,
      "Ġclothes": 7652,
      "Ġcollected": 7653,
      "Ġcapacity": 7654,
      "Ġson": 7655,
      "Ġol": 7656,
      "ĠSol": 7657,
      "Ġflower": 7658,
      "ĠDev": 7659,
      "Ġshifting": 7660,
      "Ġrobots": 7661,
      "Ġrepairs": 7662,
      "Ġyeast": 7663,
      "ancy": 7664,
      "Ġhits": 7665,
      "Ġpurchase": 7666,
      "ĠBir": 7667,
      "Ġsole": 7668,
      "Ġmur": 7669,
      "Ġfaint": 7670,
      "oz": 7671,
      "ĠHappy": 7672,
      "Ġoccasion": 7673,
      "Ġtreehouse": 7674,
      "ching": 7675,
      "Ġcoins": 7676,
      "Me": 7677,
      "Ġdilemmas": 7678,
      "ĠReleased": 7679,
      "Ġshelves": 7680,
      "ĠStay": 7681,
      "Ġrainy": 7682,
      "Ġresolution": 7683,
      "Ġmarketing": 7684,
      "Ġwrapping": 7685,
      "IS": 7686,
      "ado": 7687,
      "acet": 7688,
      "ppers": 7689,
      "point": 7690,
      "ĠStand": 7691,
      "Ġaspirations": 7692,
      "Ġrewards": 7693,
      "Ġguided": 7694,
      "ĠCO": 7695,
      "ĠAugust": 7696,
      "ĠWay": 7697,
      "ĠLu": 7698,
      "Ġconsists": 7699,
      "Ġpalp": 7700,
      "Ġsuccesses": 7701,
      "ĠNintend": 7702,
      "Ġdamp": 7703,
      "ederal": 7704,
      "Ġentertained": 7705,
      "ĠMario": 7706,
      "Ġmuseums": 7707,
      "Ġdeserves": 7708,
      "ĠGPS": 7709,
      "Ġcrisis": 7710,
      "Ġerror": 7711,
      "Ġpalpable": 7712,
      "ĠNight": 7713,
      "Ġparticipants": 7714,
      "ovember": 7715,
      "Ġtoy": 7716,
      "Ġinitially": 7717,
      "Ġinval": 7718,
      "Ġphoto": 7719,
      "Ġmassive": 7720,
      "Ġpolice": 7721,
      "Ġrehe": 7722,
      "Ġshell": 7723,
      "Ġcompact": 7724,
      "Ġmanager": 7725,
      "nes": 7726,
      "inkle": 7727,
      "ĠInter": 7728,
      "ĠRout": 7729,
      "Ġsurvey": 7730,
      "Ġtemplate": 7731,
      "kins": 7732,
      "ĠSea": 7733,
      "Set": 7734,
      "Ġplates": 7735,
      "ĠCam": 7736,
      "eters": 7737,
      "uty": 7738,
      "Ġpassions": 7739,
      "mans": 7740,
      "ĠArab": 7741,
      "Ġarticles": 7742,
      "Ġisolation": 7743,
      "table": 7744,
      "Ġvolcanic": 7745,
      "Ġidentities": 7746,
      "eries": 7747,
      "Ġapples": 7748,
      "150": 7749,
      "Ġgender": 7750,
      "natural": 7751,
      "Ġratio": 7752,
      "Ġleaned": 7753,
      "Ġpicturesque": 7754,
      "Ġzones": 7755,
      "itt": 7756,
      "Ġmeats": 7757,
      "Ġreass": 7758,
      "Ġdoubt": 7759,
      "Ġaiming": 7760,
      "Ġsymm": 7761,
      "Ġrobust": 7762,
      "Ġpottery": 7763,
      "ania": 7764,
      "ĠIsland": 7765,
      "Ġvirtual": 7766,
      "ĠTreaty": 7767,
      "ĠNintendo": 7768,
      "Ġpause": 7769,
      "Ġblood": 7770,
      "racy": 7771,
      "Ġcuts": 7772,
      "ĠNor": 7773,
      "Ġdivided": 7774,
      "Ġtouched": 7775,
      "uct": 7776,
      "Ġworkout": 7777,
      "-R": 7778,
      "Ġwidth": 7779,
      "Ġchord": 7780,
      "ida": 7781,
      "Ġparagraph": 7782,
      "Ġfertile": 7783,
      "Ġliquid": 7784,
      "ĠMuseum": 7785,
      "Ġpaus": 7786,
      "ĠTommy": 7787,
      "Ġpicn": 7788,
      "Ġdow": 7789,
      "ĠCook": 7790,
      "Ġmerch": 7791,
      "Ġmanageable": 7792,
      "Ġachievement": 7793,
      "iano": 7794,
      "Ġtrail": 7795,
      "Ġstored": 7796,
      "Ġobserving": 7797,
      "Ġvocabulary": 7798,
      "Ġvibe": 7799,
      "Ġcorners": 7800,
      "Ġsensitive": 7801,
      "Ġcookies": 7802,
      "Ġbrave": 7803,
      "Ġvocal": 7804,
      "ĠKingdom": 7805,
      "ĠWars": 7806,
      "ĠTru": 7807,
      "ba": 7808,
      "iro": 7809,
      "Ġmaker": 7810,
      "Ġcollaborate": 7811,
      "ĠSy": 7812,
      "oos": 7813,
      "Ġblade": 7814,
      "aching": 7815,
      "uity": 7816,
      "een": 7817,
      "Ġdecre": 7818,
      "ceived": 7819,
      "Ġstatistics": 7820,
      "Emma": 7821,
      "ĠRussian": 7822,
      "These": 7823,
      "Ġunfor": 7824,
      ".\"Ċ": 7825,
      "Ġfalling": 7826,
      "ĠNovember": 7827,
      "ĠCode": 7828,
      "Ġshades": 7829,
      "vas": 7830,
      "Ultimately": 7831,
      "ĠGeorge": 7832,
      "Ġwanting": 7833,
      "Ġchir": 7834,
      "Ġdescribed": 7835,
      "Ġdimensions": 7836,
      "Ġsurprising": 7837,
      "Ġrent": 7838,
      "Ġrelied": 7839,
      "Ġpor": 7840,
      "ona": 7841,
      "ima": 7842,
      "using": 7843,
      "unction": 7844,
      "ĠProper": 7845,
      "Ġadvocating": 7846,
      "ĠConversely": 7847,
      "Ġtensions": 7848,
      "Ġflying": 7849,
      "Ġchuckled": 7850,
      "Ġmanufacture": 7851,
      "ĠScient": 7852,
      "Ġgrilled": 7853,
      "Ġcoal": 7854,
      "ĠCertainly": 7855,
      "Ġadvers": 7856,
      "Ġstraw": 7857,
      "ĠSpot": 7858,
      "eps": 7859,
      "Emily": 7860,
      "Ġkeen": 7861,
      "ĠST": 7862,
      "Check": 7863,
      "Ġexperiments": 7864,
      "Ġwrestling": 7865,
      "icking": 7866,
      "iders": 7867,
      "ĠSuppose": 7868,
      "Ġinvaluable": 7869,
      "Ġstudio": 7870,
      "ĠCup": 7871,
      "cket": 7872,
      "Ġexamine": 7873,
      "Ġdom": 7874,
      "Ġhighly": 7875,
      "Ġclarify": 7876,
      "Ġlivestock": 7877,
      "ĠFinal": 7878,
      "Ġslice": 7879,
      "Ġdirections": 7880,
      "Ġwake": 7881,
      "ye": 7882,
      "ĠAsia": 7883,
      "Ġerrors": 7884,
      "Ġpages": 7885,
      "Ġrow": 7886,
      "Ġhoney": 7887,
      "ĠRich": 7888,
      "rete": 7889,
      "-off": 7890,
      "AS": 7891,
      "Ġflooding": 7892,
      "ompany": 7893,
      "Ġrises": 7894,
      "Ġdesert": 7895,
      "lymp": 7896,
      "ĠSing": 7897,
      "ĠMike": 7898,
      "ĠBack": 7899,
      "ĠSub": 7900,
      "Ġspreading": 7901,
      "Ġunk": 7902,
      "ifice": 7903,
      "ĠJac": 7904,
      "Ġguidelines": 7905,
      "Ġturb": 7906,
      "Ġemerge": 7907,
      "Ġpodcast": 7908,
      "Ġlatest": 7909,
      "Ġoccurred": 7910,
      "Ġniche": 7911,
      "empl": 7912,
      "Ġexternal": 7913,
      "Ġscholars": 7914,
      "arge": 7915,
      "tage": 7916,
      "Ġcircuit": 7917,
      "Ġfreshly": 7918,
      "Ġbakery": 7919,
      "ĠData": 7920,
      "Ġreplaced": 7921,
      "Ġwheat": 7922,
      "Ġhealing": 7923,
      "ĠAdding": 7924,
      "-round": 7925,
      "ĠHas": 7926,
      "Ġartistry": 7927,
      "Ġevolves": 7928,
      "ĠJanuary": 7929,
      "Thanks": 7930,
      "ĠGod": 7931,
      "Ġcomic": 7932,
      "ĠLove": 7933,
      "Ġdogs": 7934,
      "Ġgarnered": 7935,
      "-W": 7936,
      "Ġharmony": 7937,
      "formation": 7938,
      "Ġbacteria": 7939,
      "isure": 7940,
      "Ġtears": 7941,
      "Ġinstallation": 7942,
      "ĠSmith": 7943,
      "Ġpastries": 7944,
      "ĠObs": 7945,
      "Ġiron": 7946,
      "Ġoriginally": 7947,
      "Ġlistened": 7948,
      "Ġparam": 7949,
      "Ġbrows": 7950,
      "Ġjumping": 7951,
      "ĠOlymp": 7952,
      "ugg": 7953,
      "ĠSen": 7954,
      "ycle": 7955,
      "anda": 7956,
      ");Ċ": 7957,
      "Ġreturning": 7958,
      "Ġexistence": 7959,
      "ĠHen": 7960,
      "what": 7961,
      "manship": 7962,
      "ints": 7963,
      "rem": 7964,
      "Ġtut": 7965,
      "Ġraces": 7966,
      "Ġrecently": 7967,
      "Ġserene": 7968,
      "Ġalgorith": 7969,
      "Ġmeanings": 7970,
      "aver": 7971,
      "Ġexempl": 7972,
      "ometer": 7973,
      "Ġacid": 7974,
      "[C": 7975,
      "veys": 7976,
      "Ġdrove": 7977,
      "Ġencouragement": 7978,
      "Ġeco": 7979,
      "ĠBig": 7980,
      "Ġflight": 7981,
      "Ġsuggestions": 7982,
      "EN": 7983,
      "Ġnurturing": 7984,
      "iage": 7985,
      "Ġsocieties": 7986,
      "ji": 7987,
      "Ġspotted": 7988,
      "asc": 7989,
      "ford": 7990,
      "folio": 7991,
      "aren": 7992,
      "utting": 7993,
      "ĠRock": 7994,
      "Ġexplained": 7995,
      "aire": 7996,
      "Use": 7997,
      "Ġrituals": 7998,
      "Ġconsistency": 7999,
      "180": 8000,
      "ĠHistor": 8001,
      "Ġhomemade": 8002,
      "ĠLos": 8003,
      "ĠPers": 8004,
      "gent": 8005,
      "emption": 8006,
      "bal": 8007,
      "Ġassign": 8008,
      "Ġpracticed": 8009,
      "Ġgrains": 8010,
      "Ġcertainly": 8011,
      "Ġchatting": 8012,
      "Ġpron": 8013,
      "ĠBang": 8014,
      "Ġnominations": 8015,
      "Troubleshooting": 8016,
      "ella": 8017,
      "inking": 8018,
      "Ġindigenous": 8019,
      "Ġdrainage": 8020,
      "Ġpaved": 8021,
      "Ġinjury": 8022,
      "ĠFamily": 8023,
      "inute": 8024,
      "Ġsaving": 8025,
      "Ġshelter": 8026,
      "Ġclimbed": 8027,
      "ĠHome": 8028,
      "Ġannounced": 8029,
      "ĠRober": 8030,
      "Ġworldwide": 8031,
      "Ġreferred": 8032,
      "Ġrepeat": 8033,
      "Ġflowing": 8034,
      "Ġstunt": 8035,
      "ĠWatching": 8036,
      "Ġalternative": 8037,
      "Ġworn": 8038,
      "Ġtemple": 8039,
      "Ġfif": 8040,
      "Ġpros": 8041,
      "Ġlearns": 8042,
      "Ġrival": 8043,
      "sole": 8044,
      "Ġslide": 8045,
      "ĠCanada": 8046,
      "sters": 8047,
      "ĠUnion": 8048,
      "ĠJuly": 8049,
      "Ġspan": 8050,
      "Ġintended": 8051,
      "Ġmentors": 8052,
      "Ġdrivers": 8053,
      "Ġsacrifice": 8054,
      "Ġdiss": 8055,
      "Ġavailability": 8056,
      "Ġoutl": 8057,
      "Ġevil": 8058,
      "Ġpercent": 8059,
      "Ġgauge": 8060,
      "Ġsharpening": 8061,
      "Ġtours": 8062,
      "Ġsevere": 8063,
      "Ġartisans": 8064,
      "urches": 8065,
      "Ġdisappe": 8066,
      "Ġprop": 8067,
      "Ġrenewed": 8068,
      "rospect": 8069,
      "Ġastronomers": 8070,
      "Ġhaunting": 8071,
      "Ġwhispered": 8072,
      "nthes": 8073,
      "ĠRecogn": 8074,
      "ĠMel": 8075,
      "Ġprogressed": 8076,
      "Ġintelligence": 8077,
      "Ġleisure": 8078,
      "Ġax": 8079,
      "overs": 8080,
      "Ġcontrovers": 8081,
      "ĠExcellent": 8082,
      "ĠMot": 8083,
      "Ġgod": 8084,
      "Ġcab": 8085,
      "There": 8086,
      "awa": 8087,
      "word": 8088,
      "ili": 8089,
      "Ġestim": 8090,
      "Ġnavigates": 8091,
      "isher": 8092,
      "abil": 8093,
      "-or": 8094,
      "Reflect": 8095,
      "Ġpounds": 8096,
      "AM": 8097,
      "itches": 8098,
      "Ġbrainstorm": 8099,
      "bl": 8100,
      "Ġreflections": 8101,
      "Ġbuses": 8102,
      "stand": 8103,
      "Ġheroes": 8104,
      "|------------": 8105,
      "Ġinjuries": 8106,
      "Ġtextures": 8107,
      "</": 8108,
      "izers": 8109,
      "Ġnood": 8110,
      "apped": 8111,
      "Ġportrays": 8112,
      "Ġbrightly": 8113,
      "Ġmim": 8114,
      "umns": 8115,
      "bility": 8116,
      "Ġsupernatural": 8117,
      "ĠBrazilian": 8118,
      "getic": 8119,
      "ione": 8120,
      "Ġhip": 8121,
      "Ġvideos": 8122,
      "Ġsteel": 8123,
      "under": 8124,
      "Ġsouthern": 8125,
      "Ġcharism": 8126,
      "Ġbreeding": 8127,
      "Ġrose": 8128,
      "Ġphotography": 8129,
      "Looking": 8130,
      "rely": 8131,
      "aceted": 8132,
      "-sh": 8133,
      "Ġsavor": 8134,
      "ĠSharing": 8135,
      "ĠAud": 8136,
      "iform": 8137,
      "iances": 8138,
      "Ġsuits": 8139,
      "Ġsilly": 8140,
      "ĠBecause": 8141,
      "och": 8142,
      "Se": 8143,
      "ĠDark": 8144,
      "Ġtraveling": 8145,
      "Ġwhatever": 8146,
      "Ġbackst": 8147,
      "ĠLou": 8148,
      "ĠSetting": 8149,
      "Ġfle": 8150,
      "cious": 8151,
      "Ġintroduces": 8152,
      "ĠNature": 8153,
      "Ġexpensive": 8154,
      "Ġformats": 8155,
      "Ġsinging": 8156,
      "Ġclusters": 8157,
      "22": 8158,
      "Ġnegot": 8159,
      "Ġluck": 8160,
      "ĠAny": 8161,
      "bra": 8162,
      "Ġdemonstrate": 8163,
      "Ġgroundbreaking": 8164,
      "Ġgest": 8165,
      "Ġalien": 8166,
      "Ġcow": 8167,
      "Ġsays": 8168,
      "Ġbetray": 8169,
      "Ġsoak": 8170,
      "ĠHy": 8171,
      "mas": 8172,
      "Ġgreeted": 8173,
      "Ġmeasured": 8174,
      "Ġtech": 8175,
      "ĠPrepare": 8176,
      "Ġener": 8177,
      "Ġmolecules": 8178,
      "ĠConf": 8179,
      "Ġthoroughly": 8180,
      "Ġsequence": 8181,
      "ĠLED": 8182,
      "Ġnutrient": 8183,
      "\"What": 8184,
      "ĠConst": 8185,
      "ĠPac": 8186,
      "eworthy": 8187,
      "isdom": 8188,
      "ĠJim": 8189,
      "ĠDrag": 8190,
      "sion": 8191,
      "ĠRa": 8192,
      "Ġbrighter": 8193,
      "Ġweigh": 8194,
      "Ġreinforces": 8195,
      "Ġsubs": 8196,
      "Ġplacement": 8197,
      "Ġleather": 8198,
      "ĠClass": 8199,
      "Ġoak": 8200,
      "Ġdangers": 8201,
      "Ġruler": 8202,
      "Ġmagnetic": 8203,
      "Ġmaintained": 8204,
      "gettable": 8205,
      "Ġcomposer": 8206,
      "ĠFamilies": 8207,
      "Ġmisunderstand": 8208,
      "Ġperception": 8209,
      "Ġwors": 8210,
      "Ġstones": 8211,
      "FA": 8212,
      "osh": 8213,
      "Ġputting": 8214,
      "ummy": 8215,
      "Ġborders": 8216,
      "ĠGet": 8217,
      "Ġcardboard": 8218,
      "Ġfier": 8219,
      "ĠCentral": 8220,
      "Ġheavier": 8221,
      "poses": 8222,
      "Ġclaims": 8223,
      "ĠAtt": 8224,
      "Ġhike": 8225,
      "Ġpray": 8226,
      "Ġunforgettable": 8227,
      "Ġpound": 8228,
      "Ġcarved": 8229,
      "Ġdrinks": 8230,
      "othing": 8231,
      "Ġcrunch": 8232,
      "Ġeducate": 8233,
      "Ġnoting": 8234,
      "pread": 8235,
      "rid": 8236,
      "ĠCrit": 8237,
      "Ġampl": 8238,
      "Ġprotected": 8239,
      "Ġuniversity": 8240,
      "Ġhonors": 8241,
      "Ġentered": 8242,
      "Ġhandy": 8243,
      "Ġnoteworthy": 8244,
      "ĠThomas": 8245,
      "ĠFort": 8246,
      "Ġcleaner": 8247,
      "ĠChic": 8248,
      "Ġenergetic": 8249,
      "Ġwander": 8250,
      "Ġnest": 8251,
      "Ġaccordingly": 8252,
      "oog": 8253,
      "Ġactresses": 8254,
      "Ġet": 8255,
      "Ġcomprom": 8256,
      "Ġbrow": 8257,
      "Ġpurposes": 8258,
      "Ġartifacts": 8259,
      "Ġtex": 8260,
      "iece": 8261,
      "Ġminimize": 8262,
      "Ġpig": 8263,
      "rouble": 8264,
      "asures": 8265,
      "Ġsweetness": 8266,
      "Ġmysterious": 8267,
      "inating": 8268,
      "ashed": 8269,
      "Ġenriched": 8270,
      "Ġpoured": 8271,
      "BA": 8272,
      "ĠBattle": 8273,
      "Ġenriching": 8274,
      "va": 8275,
      "oa": 8276,
      "Ġdepicted": 8277,
      "CH": 8278,
      "Ġsoften": 8279,
      "190": 8280,
      "Ġinhabit": 8281,
      "Ġsolely": 8282,
      "rics": 8283,
      "Ġears": 8284,
      "Ġblow": 8285,
      "erals": 8286,
      "Ġconstantly": 8287,
      "ĠPresident": 8288,
      "ĠMu": 8289,
      "Ġdisaster": 8290,
      "Ġjoys": 8291,
      "asters": 8292,
      "cember": 8293,
      "ĠMont": 8294,
      "-like": 8295,
      "ums": 8296,
      "ami": 8297,
      "Ġpartnerships": 8298,
      "Ġtransc": 8299,
      "-check": 8300,
      "Ġbottle": 8301,
      "ĠInternational": 8302,
      "udd": 8303,
      "-scenes": 8304,
      "Ġadvantages": 8305,
      "Ġholiday": 8306,
      "imm": 8307,
      "Bl": 8308,
      "Ġhearty": 8309,
      "Ġteammates": 8310,
      "po": 8311,
      "Ġarcade": 8312,
      "Ġaccomplished": 8313,
      "Ġdanced": 8314,
      "mother": 8315,
      "ĠCastle": 8316,
      "ĠJason": 8317,
      "Ġstance": 8318,
      "Ġsimulation": 8319,
      "inse": 8320,
      "Ġexecut": 8321,
      "Ġchair": 8322,
      "helf": 8323,
      "Ġdivide": 8324,
      "Ġencounters": 8325,
      "ĠInside": 8326,
      "ĠTor": 8327,
      "Ġgears": 8328,
      "Ġexchanged": 8329,
      "ĠPosition": 8330,
      "Ġphotograph": 8331,
      "Ġstorms": 8332,
      "ĠIde": 8333,
      "His": 8334,
      "Ġillustrating": 8335,
      "Ġtent": 8336,
      "Ġarguments": 8337,
      "Ġflavorful": 8338,
      "iox": 8339,
      "Ġpave": 8340,
      "Ġabsurd": 8341,
      "Ġtrag": 8342,
      "erate": 8343,
      "Ġfreely": 8344,
      "ĠIr": 8345,
      "ĠMaterials": 8346,
      "Ġinch": 8347,
      "well": 8348,
      "Ġlad": 8349,
      "ĠBus": 8350,
      "ĠMean": 8351,
      "Ġvir": 8352,
      "Ġcolumn": 8353,
      "ĠResidents": 8354,
      "ĠLand": 8355,
      "Ġamounts": 8356,
      "Ġmart": 8357,
      "Ġinnovations": 8358,
      "ĠDist": 8359,
      "Ġbic": 8360,
      "Ġrelevance": 8361,
      "Ġspotlight": 8362,
      "Ġcompetitions": 8363,
      "ĠYear": 8364,
      "aka": 8365,
      "Ġseamlessly": 8366,
      "ĠĠĠĠĠĠĠĠĠĠ": 8367,
      "Ġslope": 8368,
      "isl": 8369,
      "ĠEc": 8370,
      "Ġdrug": 8371,
      "Ġmanip": 8372,
      "ĠBest": 8373,
      "Ġethnic": 8374,
      "irty": 8375,
      "ald": 8376,
      "Ġgrit": 8377,
      ".g": 8378,
      "aky": 8379,
      "Ġresidential": 8380,
      "ĠBur": 8381,
      "Ġreasoning": 8382,
      "ĠViewers": 8383,
      "Ġtreats": 8384,
      "Ġpublished": 8385,
      "Ġdarkness": 8386,
      "Ġbubbling": 8387,
      "Ġmodernization": 8388,
      "ĠScientists": 8389,
      "ĠColor": 8390,
      "Ġfinishing": 8391,
      "icks": 8392,
      "Ġgods": 8393,
      "Ġaddresses": 8394,
      "Ġship": 8395,
      "icket": 8396,
      "uma": 8397,
      "working": 8398,
      "Ġbrid": 8399,
      "ĠCorrect": 8400,
      "ĠMiss": 8401,
      "Ġdestruction": 8402,
      "Ġmorality": 8403,
      "Ġsettlers": 8404,
      "hu": 8405,
      "Ġindicating": 8406,
      "Ġgrace": 8407,
      "vention": 8408,
      "Creating": 8409,
      "vable": 8410,
      "Ġinner": 8411,
      "owned": 8412,
      "ĠPublic": 8413,
      "Sarah": 8414,
      "vin": 8415,
      "Ġnetworks": 8416,
      "Ġtransp": 8417,
      "Ġmyths": 8418,
      "ĠYoung": 8419,
      "Ġatoms": 8420,
      "Ġcoverage": 8421,
      "21": 8422,
      "ĠSN": 8423,
      "ĠDecember": 8424,
      "Ġhun": 8425,
      "ĠEll": 8426,
      "Ġredemption": 8427,
      "ĠBay": 8428,
      "Ġpreventing": 8429,
      "oub": 8430,
      "Ġprotective": 8431,
      "ripts": 8432,
      "ifications": 8433,
      "ĠDemoc": 8434,
      "Ġcomparing": 8435,
      "Ġrequirements": 8436,
      "Ġprivacy": 8437,
      "igious": 8438,
      "warming": 8439,
      "Ġpool": 8440,
      "real": 8441,
      "Ġsunset": 8442,
      "Ġcircles": 8443,
      "Ġshed": 8444,
      "Ġstock": 8445,
      "ĠJul": 8446,
      "Ġsubt": 8447,
      "Ġportfolio": 8448,
      "ĠAnna": 8449,
      "amples": 8450,
      "Ġhighest": 8451,
      "ĠWestern": 8452,
      "Ġalter": 8453,
      "ĠCong": 8454,
      "Ġsouth": 8455,
      "war": 8456,
      "ĠTit": 8457,
      "ĠFranc": 8458,
      "Ġwarr": 8459,
      "overn": 8460,
      "asive": 8461,
      "ĠVer": 8462,
      "ĠVir": 8463,
      "Ġheartwarming": 8464,
      "Ġweave": 8465,
      "Ġcarried": 8466,
      "Ġcoc": 8467,
      "Ġmusician": 8468,
      "Ġwhisper": 8469,
      "ouns": 8470,
      "ĠWhite": 8471,
      "Ġsan": 8472,
      "Ġpock": 8473,
      "Ġcouncil": 8474,
      "Ġscoring": 8475,
      "arts": 8476,
      "Ġtricks": 8477,
      "Ġholidays": 8478,
      "191": 8479,
      "Ġming": 8480,
      "Ġreaches": 8481,
      "viet": 8482,
      "Ġfilmmaker": 8483,
      "Ġacknowled": 8484,
      "Ġhardware": 8485,
      "Ġinterpretations": 8486,
      "osa": 8487,
      "Warm": 8488,
      "rane": 8489,
      "Ġstretches": 8490,
      "bor": 8491,
      "Ġinfectious": 8492,
      "Ġcreators": 8493,
      "Ġsolidified": 8494,
      "Ġattach": 8495,
      "Ġkilometers": 8496,
      "ĠSoviet": 8497,
      "Ġnorthern": 8498,
      "valu": 8499,
      "Ġmapping": 8500,
      "Ġmud": 8501,
      "Ġstrain": 8502,
      "Ġguides": 8503,
      "Ġposts": 8504,
      "\"Let": 8505,
      "Ġemotionally": 8506,
      "Ġsatisfaction": 8507,
      "Ġnavigated": 8508,
      "Ġbroken": 8509,
      "Ġcredit": 8510,
      "Ġadvocacy": 8511,
      "Ġgases": 8512,
      "Ġcups": 8513,
      "Ġscan": 8514,
      "Ġsatellite": 8515,
      "ĠWriting": 8516,
      "Ġnuances": 8517,
      "Ġutilize": 8518,
      "Ġreun": 8519,
      "Ġshru": 8520,
      "Ġwisdom": 8521,
      "Ġchurches": 8522,
      "Clara": 8523,
      "iability": 8524,
      "ĠTwo": 8525,
      "Ġfixed": 8526,
      "ĠPlanning": 8527,
      "ĠFarmers": 8528,
      "ĠDig": 8529,
      "tics": 8530,
      "Ġengages": 8531,
      "Ġconvenient": 8532,
      "bru": 8533,
      "esh": 8534,
      "Ġtactics": 8535,
      "Ġhyp": 8536,
      "Ġvariables": 8537,
      "Ġintertwined": 8538,
      "idespread": 8539,
      "icul": 8540,
      "Ġendeavors": 8541,
      "Ġenforce": 8542,
      "Ġgenetic": 8543,
      "Ġordinary": 8544,
      "pan": 8545,
      "Ġforeign": 8546,
      "Ġlargely": 8547,
      "Ġenab": 8548,
      "Sincerely": 8549,
      "ceptions": 8550,
      "Ġhospitality": 8551,
      "ĠDirect": 8552,
      "paper": 8553,
      "Ġwidespread": 8554,
      "Ġelectronic": 8555,
      "ocked": 8556,
      "ĠPortug": 8557,
      "Ġforced": 8558,
      "Pro": 8559,
      "Ġmelt": 8560,
      "ulf": 8561,
      "Ġgovernments": 8562,
      "Ġstitch": 8563,
      "Ġunknown": 8564,
      "Ġweekly": 8565,
      "Ġstrike": 8566,
      "aline": 8567,
      "Ġsmiles": 8568,
      "Ġwoods": 8569,
      "ĠFoot": 8570,
      "Ġcandy": 8571,
      "Ġdemocracy": 8572,
      "ule": 8573,
      "ĠSelect": 8574,
      "Ġprox": 8575,
      "ental": 8576,
      "Ġwore": 8577,
      "Ġretire": 8578,
      "ĠTown": 8579,
      "Okay": 8580,
      "agn": 8581,
      "Ġimagined": 8582,
      "uy": 8583,
      "acon": 8584,
      "ĠHistory": 8585,
      "nings": 8586,
      "Ġcontainers": 8587,
      "uits": 8588,
      "Ġsettlement": 8589,
      "Ġpresenting": 8590,
      "rance": 8591,
      "Ġamidst": 8592,
      "Ġvisibility": 8593,
      "ĠCool": 8594,
      "uan": 8595,
      "Ġfinger": 8596,
      "Ġsecurely": 8597,
      "Ġforgotten": 8598,
      "Ġleaf": 8599,
      "Ġrequest": 8600,
      "Ġdesignated": 8601,
      "Ġopinion": 8602,
      "Ġdurability": 8603,
      "Ġdaunting": 8604,
      "Ġinitiative": 8605,
      "ĠBook": 8606,
      "Ġtexts": 8607,
      "Ġgrandmother": 8608,
      "Ġchances": 8609,
      "Ġshake": 8610,
      "Ġmindset": 8611,
      "Ġfailure": 8612,
      "Ġobserved": 8613,
      ").Ċ": 8614,
      "Ġtextiles": 8615,
      "Ġpositioned": 8616,
      "Ġcomedies": 8617,
      "ĠResearch": 8618,
      "Ad": 8619,
      "Ġmobile": 8620,
      "Ġprovince": 8621,
      "Beyond": 8622,
      "ĠIran": 8623,
      "Ġfrustrating": 8624,
      "Ġpaid": 8625,
      "Ġrotation": 8626,
      "Ġcompress": 8627,
      "Ġerupted": 8628,
      "Ġmatrix": 8629,
      "RI": 8630,
      "Ġsex": 8631,
      "Ġpossess": 8632,
      "ĠJew": 8633,
      "Ġflourish": 8634,
      "Sam": 8635,
      "uration": 8636,
      "Ġshorter": 8637,
      "Ġpotentially": 8638,
      "Ġcolumns": 8639,
      "ĠCollaboration": 8640,
      "Ġarray": 8641,
      "AL": 8642,
      "anth": 8643,
      "Ġeagerly": 8644,
      ").ĊĊ": 8645,
      "Ġcafes": 8646,
      "Ġperm": 8647,
      "Ġvariable": 8648,
      "ĠAdv": 8649,
      "ĠWall": 8650,
      "ĠCare": 8651,
      "Ġpursuing": 8652,
      "Ġworried": 8653,
      "Ġtrouble": 8654,
      "Ġmeasurement": 8655,
      "iana": 8656,
      "ĠFre": 8657,
      "Ġresilient": 8658,
      "ĠSpec": 8659,
      "Ġbrewing": 8660,
      "Ġnearly": 8661,
      "Ġexcell": 8662,
      "\"It": 8663,
      "Ġcommerce": 8664,
      "Ġgeometry": 8665,
      "ĠSn": 8666,
      "ĠDead": 8667,
      "comed": 8668,
      "Ġadopt": 8669,
      "Ġphrase": 8670,
      "ildren": 8671,
      "con": 8672,
      "ĠHaw": 8673,
      "imity": 8674,
      "venture": 8675,
      "Ġcontract": 8676,
      "Ġdebates": 8677,
      "celer": 8678,
      "Ġregards": 8679,
      "Ġmotivation": 8680,
      "Ġsubstances": 8681,
      "-old": 8682,
      "Ġvertical": 8683,
      "Ġtid": 8684,
      "ĠHand": 8685,
      "Ġchefs": 8686,
      "Ġrig": 8687,
      "Ġconver": 8688,
      "Ġstairs": 8689,
      "Ġportraying": 8690,
      "aki": 8691,
      "23": 8692,
      "Ġeld": 8693,
      "ician": 8694,
      "ĠChicago": 8695,
      "Ġdives": 8696,
      "Ġmultif": 8697,
      "Ġbookshelf": 8698,
      "ĠViet": 8699,
      "raints": 8700,
      "Ġscared": 8701,
      "Ġhoning": 8702,
      "aped": 8703,
      "Ġchallenged": 8704,
      "Ġmelting": 8705,
      "Ġrows": 8706,
      "quir": 8707,
      "Ġconsumer": 8708,
      "HL": 8709,
      "Ġdisplays": 8710,
      "Ġrains": 8711,
      "Ġblooming": 8712,
      "za": 8713,
      "Ġmentor": 8714,
      "Ġminimal": 8715,
      "Ġcompounds": 8716,
      "reens": 8717,
      "Ġprepares": 8718,
      "Ġwithstand": 8719,
      "ĠHum": 8720,
      "Ġrelaxation": 8721,
      "Ġcoaching": 8722,
      "Ġspray": 8723,
      "Ġofferings": 8724,
      "orial": 8725,
      "aust": 8726,
      "Ġthrives": 8727,
      "Ġstretching": 8728,
      "Ġparalle": 8729,
      "ĠFuture": 8730,
      "Ġbarely": 8731,
      "Ġheating": 8732,
      "kward": 8733,
      "ugs": 8734,
      "Ġrevisit": 8735,
      "Ġsor": 8736,
      "Ġstark": 8737,
      "lom": 8738,
      "roduction": 8739,
      "Ġdriven": 8740,
      "Ġtomorrow": 8741,
      "Ġstops": 8742,
      "ĠSand": 8743,
      "Ġwheels": 8744,
      "Ġposit": 8745,
      "Ġadversity": 8746,
      "Ġcommand": 8747,
      "ĠQue": 8748,
      "imal": 8749,
      "roy": 8750,
      "Ġcooperative": 8751,
      "ĠRel": 8752,
      "writing": 8753,
      "Ġprest": 8754,
      "Ġrecorded": 8755,
      "Ġunlock": 8756,
      "pro": 8757,
      "Ġbloss": 8758,
      "oir": 8759,
      "Ġfascinated": 8760,
      "zen": 8761,
      "ĠLow": 8762,
      "kin": 8763,
      "Ġgreens": 8764,
      "ĠInit": 8765,
      "Ġtragic": 8766,
      "ĠGames": 8767,
      "elly": 8768,
      "Ġusage": 8769,
      "Ġwraps": 8770,
      "Ġcompanions": 8771,
      "Ġham": 8772,
      "Ġpreference": 8773,
      "Ġwarmer": 8774,
      "Ġmaximize": 8775,
      "Ġsurge": 8776,
      "Ġimagery": 8777,
      "Ġplease": 8778,
      "PR": 8779,
      "Ġattended": 8780,
      "Ġprovoke": 8781,
      "ĠCharl": 8782,
      "ventional": 8783,
      "Ġoperation": 8784,
      "Ġcampaigns": 8785,
      "ĠMem": 8786,
      "Ġcharts": 8787,
      "anqu": 8788,
      "Le": 8789,
      "Ġanimations": 8790,
      "Ġawkward": 8791,
      "Ġcycles": 8792,
      "Ġcreature": 8793,
      "Ġcountryside": 8794,
      "Mark": 8795,
      "Ġrehears": 8796,
      "Not": 8797,
      "Ġsavory": 8798,
      "ĠTrack": 8799,
      "ointment": 8800,
      "Ġrevealed": 8801,
      "keep": 8802,
      "ĠSwed": 8803,
      "Ġdiscip": 8804,
      "Ġbrightness": 8805,
      "utch": 8806,
      "Ġproductivity": 8807,
      "Ġearning": 8808,
      "Ġpeer": 8809,
      "oman": 8810,
      "rum": 8811,
      "Ġdense": 8812,
      "flies": 8813,
      "Ġpointed": 8814,
      "Ġversus": 8815,
      "aturally": 8816,
      "Ġsymbolizes": 8817,
      "ustle": 8818,
      "Ġcosmic": 8819,
      "Up": 8820,
      "ĠSupport": 8821,
      "-day": 8822,
      "unicip": 8823,
      "ĠAsian": 8824,
      "ruct": 8825,
      "ĠVietnam": 8826,
      "points": 8827,
      "ĠDraw": 8828,
      "ographical": 8829,
      "Ġlinear": 8830,
      "Ġaligned": 8831,
      "unched": 8832,
      "Ġtouching": 8833,
      "Ġtired": 8834,
      "?**": 8835,
      "Ġfitting": 8836,
      "bruary": 8837,
      "Ġproactive": 8838,
      "Ġtraced": 8839,
      "Ġthriller": 8840,
      "Ġintegrating": 8841,
      "Ġreplay": 8842,
      "Ġsuddenly": 8843,
      "olic": 8844,
      "Ġanime": 8845,
      "Ġconcrete": 8846,
      "Ġterrain": 8847,
      "issance": 8848,
      "emy": 8849,
      "Ġsuppose": 8850,
      "MI": 8851,
      "Ġpand": 8852,
      "Ġresolve": 8853,
      "ĠCreating": 8854,
      "-style": 8855,
      "Ġbehave": 8856,
      "Ġfierce": 8857,
      "umble": 8858,
      "onight": 8859,
      "Ġbelieving": 8860,
      "ĠSTUDENT": 8861,
      "Ġsym": 8862,
      "Ġtreasures": 8863,
      "Ġhockey": 8864,
      "ta": 8865,
      "Ġfought": 8866,
      "Ġalloc": 8867,
      "Ġreinforcing": 8868,
      "Ġlengths": 8869,
      "Ġhards": 8870,
      "nowned": 8871,
      "Ġavoiding": 8872,
      ")**:": 8873,
      "Ġbreeds": 8874,
      "Ġdating": 8875,
      "ey": 8876,
      "Ġjot": 8877,
      "ading": 8878,
      "Ġsmiling": 8879,
      "ĠScott": 8880,
      "Ġmartial": 8881,
      "perature": 8882,
      "Ġvoltage": 8883,
      "Ġtrading": 8884,
      "Ġfoss": 8885,
      "Ġproximity": 8886,
      "Ġyog": 8887,
      "Ġvisited": 8888,
      "Ġsalad": 8889,
      "Ġencountered": 8890,
      "Ġboat": 8891,
      "rate": 8892,
      "ĠAngeles": 8893,
      "ĠEncourage": 8894,
      "Ġvarying": 8895,
      "Ġincorporates": 8896,
      "ĠServ": 8897,
      "Ġmirrors": 8898,
      "ĠRain": 8899,
      "Ġimplementing": 8900,
      "Ġneut": 8901,
      "Vis": 8902,
      "Ġdistractions": 8903,
      "Ġmultifaceted": 8904,
      "ĠElect": 8905,
      "ĠPak": 8906,
      "ĠTrue": 8907,
      "Ġnaturally": 8908,
      "falls": 8909,
      "ĠPen": 8910,
      "Ġgloves": 8911,
      "udes": 8912,
      "ĠMeasure": 8913,
      "acked": 8914,
      "Ġrenowned": 8915,
      "Ġdownt": 8916,
      "Ġrelying": 8917,
      "Ġdivision": 8918,
      "Ġadmitted": 8919,
      "ĠDI": 8920,
      "Ġborder": 8921,
      "oul": 8922,
      "equ": 8923,
      "Ġconsole": 8924,
      "Ġoperates": 8925,
      "una": 8926,
      "fish": 8927,
      "Ġmistake": 8928,
      "Ġlightly": 8929,
      "Ġstrict": 8930,
      "Ġorganisms": 8931,
      "ĠNav": 8932,
      "Ġislands": 8933,
      "ensis": 8934,
      "Ġaccomplishment": 8935,
      "Ġstopped": 8936,
      "Ġcreamy": 8937,
      "oral": 8938,
      "yal": 8939,
      "leys": 8940,
      "Ġdied": 8941,
      "ours": 8942,
      "Ġattractive": 8943,
      "Ġlogical": 8944,
      "Ġrhythms": 8945,
      "Ġtested": 8946,
      "Ġneb": 8947,
      "ĠExp": 8948,
      "Ġimproves": 8949,
      "Ġpriority": 8950,
      "Ġownership": 8951,
      "icate": 8952,
      "Ġtriangle": 8953,
      "Ġturm": 8954,
      "lore": 8955,
      "Ġgray": 8956,
      "ĠEle": 8957,
      "Ġinteracts": 8958,
      "imens": 8959,
      "Ġpremise": 8960,
      "Ġinventions": 8961,
      "Ġpraise": 8962,
      "Ġleague": 8963,
      "Ġhonoring": 8964,
      "Ġgate": 8965,
      "Ġpersu": 8966,
      "Ġcontrolled": 8967,
      "Ġveter": 8968,
      "arg": 8969,
      "Ġnutrition": 8970,
      "han": 8971,
      "Ġtimer": 8972,
      "engers": 8973,
      "ĠHall": 8974,
      "ĠColle": 8975,
      "ĠMer": 8976,
      "aret": 8977,
      "Ġcorresp": 8978,
      "Ġcinematic": 8979,
      "Ġunderstands": 8980,
      "ĠTre": 8981,
      "ĠCivil": 8982,
      "Ġmural": 8983,
      "Ġerosion": 8984,
      "Ġbesides": 8985,
[...]
